{
  "version": "1.0",
  "truncation": null,
  "padding": null,
  "added_tokens": [
    {
      "id": 0,
      "content": "<pad>",
      "single_word": false,
      "lstrip": false,
      "rstrip": false,
      "normalized": false,
      "special": true
    },
    {
      "id": 1,
      "content": "<unk>",
      "single_word": false,
      "lstrip": false,
      "rstrip": false,
      "normalized": false,
      "special": true
    },
    {
      "id": 2,
      "content": "<bos>",
      "single_word": false,
      "lstrip": false,
      "rstrip": false,
      "normalized": false,
      "special": true
    },
    {
      "id": 3,
      "content": "<eos>",
      "single_word": false,
      "lstrip": false,
      "rstrip": false,
      "normalized": false,
      "special": true
    },
    {
      "id": 4,
      "content": "<|system|>",
      "single_word": false,
      "lstrip": false,
      "rstrip": false,
      "normalized": false,
      "special": true
    },
    {
      "id": 5,
      "content": "<|user|>",
      "single_word": false,
      "lstrip": false,
      "rstrip": false,
      "normalized": false,
      "special": true
    },
    {
      "id": 6,
      "content": "<|assistant|>",
      "single_word": false,
      "lstrip": false,
      "rstrip": false,
      "normalized": false,
      "special": true
    },
    {
      "id": 7,
      "content": "<|end|>",
      "single_word": false,
      "lstrip": false,
      "rstrip": false,
      "normalized": false,
      "special": true
    }
  ],
  "normalizer": {
    "type": "Sequence",
    "normalizers": [
      {
        "type": "NFKC"
      },
      {
        "type": "Replace",
        "pattern": {
          "String": "\\s+"
        },
        "content": " "
      },
      {
        "type": "Strip",
        "strip_left": true,
        "strip_right": true
      }
    ]
  },
  "pre_tokenizer": {
    "type": "Sequence",
    "pretokenizers": [
      {
        "type": "WhitespaceSplit"
      },
      {
        "type": "UnicodeScripts"
      }
    ]
  },
  "post_processor": {
    "type": "TemplateProcessing",
    "single": [
      {
        "SpecialToken": {
          "id": "<bos>",
          "type_id": 0
        }
      },
      {
        "Sequence": {
          "id": "A",
          "type_id": 0
        }
      },
      {
        "SpecialToken": {
          "id": "<eos>",
          "type_id": 0
        }
      }
    ],
    "pair": [
      {
        "SpecialToken": {
          "id": "<bos>",
          "type_id": 0
        }
      },
      {
        "Sequence": {
          "id": "A",
          "type_id": 0
        }
      },
      {
        "SpecialToken": {
          "id": "<eos>",
          "type_id": 0
        }
      },
      {
        "SpecialToken": {
          "id": "<bos>",
          "type_id": 1
        }
      },
      {
        "Sequence": {
          "id": "B",
          "type_id": 1
        }
      },
      {
        "SpecialToken": {
          "id": "<eos>",
          "type_id": 1
        }
      }
    ],
    "special_tokens": {
      "<bos>": {
        "id": "<bos>",
        "ids": [
          2
        ],
        "tokens": [
          "<bos>"
        ]
      },
      "<eos>": {
        "id": "<eos>",
        "ids": [
          3
        ],
        "tokens": [
          "<eos>"
        ]
      }
    }
  },
  "decoder": {
    "type": "BPEDecoder",
    "suffix": "</w>"
  },
  "model": {
    "type": "BPE",
    "dropout": null,
    "unk_token": "<unk>",
    "continuing_subword_prefix": null,
    "end_of_word_suffix": null,
    "fuse_unk": false,
    "byte_fallback": false,
    "ignore_merges": false,
    "vocab": {
      "<pad>": 0,
      "<unk>": 1,
      "<bos>": 2,
      "<eos>": 3,
      "<|system|>": 4,
      "<|user|>": 5,
      "<|assistant|>": 6,
      "<|end|>": 7,
      "!": 8,
      "(": 9,
      ")": 10,
      "*": 11,
      "+": 12,
      ".": 13,
      "2": 14,
      "6": 15,
      "7": 16,
      ":": 17,
      ";": 18,
      "?": 19,
      "[": 20,
      "]": 21,
      "^": 22,
      "a": 23,
      "b": 24,
      "c": 25,
      "h": 26,
      "m": 27,
      "o": 28,
      "p": 29,
      "s": 30,
      "u": 31,
      "w": 32,
      "y": 33,
      "{": 34,
      "~": 35,
      "¥": 36,
      "—": 37,
      "‘": 38,
      "’": 39,
      "“": 40,
      "”": 41,
      "□": 42,
      "、": 43,
      "。": 44,
      "《": 45,
      "》": 46,
      "【": 47,
      "】": 48,
      "〔": 49,
      "〕": 50,
      "一": 51,
      "丁": 52,
      "七": 53,
      "万": 54,
      "丈": 55,
      "三": 56,
      "上": 57,
      "下": 58,
      "不": 59,
      "与": 60,
      "丑": 61,
      "专": 62,
      "且": 63,
      "丕": 64,
      "世": 65,
      "丘": 66,
      "丙": 67,
      "业": 68,
      "丛": 69,
      "东": 70,
      "丝": 71,
      "丞": 72,
      "丢": 73,
      "两": 74,
      "严": 75,
      "丧": 76,
      "个": 77,
      "丫": 78,
      "中": 79,
      "丰": 80,
      "串": 81,
      "临": 82,
      "丸": 83,
      "丹": 84,
      "为": 85,
      "主": 86,
      "丽": 87,
      "举": 88,
      "乃": 89,
      "久": 90,
      "么": 91,
      "义": 92,
      "之": 93,
      "乌": 94,
      "乍": 95,
      "乎": 96,
      "乏": 97,
      "乐": 98,
      "乒": 99,
      "乓": 100,
      "乔": 101,
      "乖": 102,
      "乘": 103,
      "乙": 104,
      "乜": 105,
      "九": 106,
      "乞": 107,
      "也": 108,
      "习": 109,
      "乡": 110,
      "书": 111,
      "买": 112,
      "乱": 113,
      "乳": 114,
      "乾": 115,
      "了": 116,
      "予": 117,
      "争": 118,
      "事": 119,
      "二": 120,
      "于": 121,
      "亏": 122,
      "云": 123,
      "互": 124,
      "五": 125,
      "井": 126,
      "亘": 127,
      "亚": 128,
      "些": 129,
      "亡": 130,
      "亢": 131,
      "交": 132,
      "亥": 133,
      "亦": 134,
      "产": 135,
      "亨": 136,
      "亩": 137,
      "享": 138,
      "京": 139,
      "亭": 140,
      "亮": 141,
      "亲": 142,
      "亵": 143,
      "人": 144,
      "亿": 145,
      "什": 146,
      "仁": 147,
      "仃": 148,
      "仅": 149,
      "仆": 150,
      "仇": 151,
      "今": 152,
      "介": 153,
      "仍": 154,
      "从": 155,
      "仑": 156,
      "仓": 157,
      "仔": 158,
      "他": 159,
      "仗": 160,
      "付": 161,
      "仙": 162,
      "仞": 163,
      "代": 164,
      "令": 165,
      "以": 166,
      "仪": 167,
      "们": 168,
      "仰": 169,
      "仲": 170,
      "仵": 171,
      "件": 172,
      "价": 173,
      "任": 174,
      "仿": 175,
      "伉": 176,
      "伊": 177,
      "伍": 178,
      "伏": 179,
      "伐": 180,
      "休": 181,
      "众": 182,
      "优": 183,
      "伙": 184,
      "会": 185,
      "伞": 186,
      "伟": 187,
      "传": 188,
      "伤": 189,
      "伦": 190,
      "伪": 191,
      "伫": 192,
      "伯": 193,
      "估": 194,
      "伴": 195,
      "伶": 196,
      "伸": 197,
      "伺": 198,
      "似": 199,
      "伽": 200,
      "佃": 201,
      "但": 202,
      "佇": 203,
      "位": 204,
      "低": 205,
      "住": 206,
      "佐": 207,
      "佑": 208,
      "体": 209,
      "何": 210,
      "余": 211,
      "佛": 212,
      "作": 213,
      "佞": 214,
      "你": 215,
      "佣": 216,
      "佥": 217,
      "佩": 218,
      "佯": 219,
      "佳": 220,
      "使": 221,
      "侄": 222,
      "侈": 223,
      "例": 224,
      "侍": 225,
      "供": 226,
      "依": 227,
      "侠": 228,
      "侣": 229,
      "侥": 230,
      "侧": 231,
      "侪": 232,
      "侮": 233,
      "侯": 234,
      "侵": 235,
      "便": 236,
      "促": 237,
      "俄": 238,
      "俊": 239,
      "俎": 240,
      "俏": 241,
      "俐": 242,
      "俗": 243,
      "俚": 244,
      "保": 245,
      "俟": 246,
      "信": 247,
      "俦": 248,
      "俨": 249,
      "俪": 250,
      "俫": 251,
      "俭": 252,
      "修": 253,
      "俯": 254,
      "俱": 255,
      "俸": 256,
      "俺": 257,
      "倈": 258,
      "倍": 259,
      "倏": 260,
      "倐": 261,
      "倒": 262,
      "倘": 263,
      "候": 264,
      "倚": 265,
      "倜": 266,
      "借": 267,
      "倥": 268,
      "倦": 269,
      "倨": 270,
      "倩": 271,
      "债": 272,
      "值": 273,
      "倾": 274,
      "偃": 275,
      "假": 276,
      "偈": 277,
      "偌": 278,
      "偎": 279,
      "偏": 280,
      "做": 281,
      "停": 282,
      "健": 283,
      "偶": 284,
      "偷": 285,
      "偿": 286,
      "傀": 287,
      "傅": 288,
      "傍": 289,
      "傞": 290,
      "傥": 291,
      "储": 292,
      "傩": 293,
      "催": 294,
      "傲": 295,
      "傻": 296,
      "像": 297,
      "僚": 298,
      "僝": 299,
      "僧": 300,
      "僭": 301,
      "僮": 302,
      "僵": 303,
      "僻": 304,
      "僽": 305,
      "儒": 306,
      "儡": 307,
      "儾": 308,
      "儿": 309,
      "兀": 310,
      "允": 311,
      "元": 312,
      "兄": 313,
      "充": 314,
      "兆": 315,
      "先": 316,
      "光": 317,
      "克": 318,
      "免": 319,
      "兑": 320,
      "兔": 321,
      "兕": 322,
      "党": 323,
      "兜": 324,
      "兢": 325,
      "入": 326,
      "全": 327,
      "八": 328,
      "公": 329,
      "六": 330,
      "兮": 331,
      "兰": 332,
      "共": 333,
      "关": 334,
      "兴": 335,
      "兵": 336,
      "其": 337,
      "具": 338,
      "典": 339,
      "兹": 340,
      "养": 341,
      "兼": 342,
      "兽": 343,
      "冀": 344,
      "内": 345,
      "冈": 346,
      "冉": 347,
      "再": 348,
      "冒": 349,
      "冕": 350,
      "冗": 351,
      "写": 352,
      "军": 353,
      "农": 354,
      "冠": 355,
      "冢": 356,
      "冤": 357,
      "冥": 358,
      "冬": 359,
      "冯": 360,
      "冰": 361,
      "冲": 362,
      "决": 363,
      "况": 364,
      "冷": 365,
      "冻": 366,
      "冽": 367,
      "净": 368,
      "凄": 369,
      "准": 370,
      "凉": 371,
      "凋": 372,
      "凌": 373,
      "减": 374,
      "凑": 375,
      "凛": 376,
      "凝": 377,
      "几": 378,
      "凡": 379,
      "凤": 380,
      "凫": 381,
      "凭": 382,
      "凯": 383,
      "凰": 384,
      "凳": 385,
      "凶": 386,
      "凸": 387,
      "凹": 388,
      "出": 389,
      "击": 390,
      "函": 391,
      "凿": 392,
      "刀": 393,
      "刁": 394,
      "刃": 395,
      "分": 396,
      "切": 397,
      "刎": 398,
      "刑": 399,
      "划": 400,
      "列": 401,
      "刘": 402,
      "则": 403,
      "刚": 404,
      "创": 405,
      "初": 406,
      "删": 407,
      "判": 408,
      "刨": 409,
      "利": 410,
      "别": 411,
      "刬": 412,
      "刮": 413,
      "到": 414,
      "刳": 415,
      "制": 416,
      "刷": 417,
      "券": 418,
      "刹": 419,
      "刺": 420,
      "刻": 421,
      "刽": 422,
      "剁": 423,
      "剂": 424,
      "剃": 425,
      "削": 426,
      "剌": 427,
      "前": 428,
      "剐": 429,
      "剑": 430,
      "剔": 431,
      "剖": 432,
      "剜": 433,
      "剥": 434,
      "剩": 435,
      "剪": 436,
      "副": 437,
      "割": 438,
      "剽": 439,
      "剿": 440,
      "劈": 441,
      "劖": 442,
      "力": 443,
      "劝": 444,
      "办": 445,
      "功": 446,
      "加": 447,
      "务": 448,
      "劣": 449,
      "动": 450,
      "助": 451,
      "努": 452,
      "劫": 453,
      "劬": 454,
      "劲": 455,
      "劳": 456,
      "势": 457,
      "勅": 458,
      "勇": 459,
      "勉": 460,
      "勋": 461,
      "勒": 462,
      "勘": 463,
      "募": 464,
      "勣": 465,
      "勤": 466,
      "勺": 467,
      "勾": 468,
      "勿": 469,
      "匀": 470,
      "包": 471,
      "匆": 472,
      "化": 473,
      "北": 474,
      "匙": 475,
      "匝": 476,
      "匠": 477,
      "匡": 478,
      "匣": 479,
      "匹": 480,
      "区": 481,
      "医": 482,
      "匾": 483,
      "匿": 484,
      "十": 485,
      "千": 486,
      "升": 487,
      "午": 488,
      "卉": 489,
      "半": 490,
      "华": 491,
      "协": 492,
      "卑": 493,
      "卒": 494,
      "卓": 495,
      "单": 496,
      "卖": 497,
      "南": 498,
      "博": 499,
      "卜": 500,
      "卞": 501,
      "占": 502,
      "卢": 503,
      "卤": 504,
      "卦": 505,
      "卧": 506,
      "卫": 507,
      "卮": 508,
      "卯": 509,
      "印": 510,
      "危": 511,
      "即": 512,
      "却": 513,
      "卵": 514,
      "卷": 515,
      "卸": 516,
      "卺": 517,
      "卿": 518,
      "厂": 519,
      "厄": 520,
      "厅": 521,
      "历": 522,
      "厉": 523,
      "压": 524,
      "厌": 525,
      "厕": 526,
      "厘": 527,
      "厚": 528,
      "原": 529,
      "厢": 530,
      "厦": 531,
      "厨": 532,
      "厮": 533,
      "去": 534,
      "县": 535,
      "参": 536,
      "叆": 537,
      "叇": 538,
      "又": 539,
      "叉": 540,
      "及": 541,
      "友": 542,
      "双": 543,
      "反": 544,
      "叔": 545,
      "取": 546,
      "受": 547,
      "变": 548,
      "叙": 549,
      "叛": 550,
      "叟": 551,
      "叠": 552,
      "口": 553,
      "古": 554,
      "句": 555,
      "另": 556,
      "叨": 557,
      "叩": 558,
      "只": 559,
      "叫": 560,
      "召": 561,
      "叭": 562,
      "叮": 563,
      "可": 564,
      "台": 565,
      "叱": 566,
      "史": 567,
      "右": 568,
      "叵": 569,
      "叶": 570,
      "号": 571,
      "司": 572,
      "叹": 573,
      "吁": 574,
      "吃": 575,
      "各": 576,
      "吅": 577,
      "吆": 578,
      "合": 579,
      "吉": 580,
      "吊": 581,
      "同": 582,
      "名": 583,
      "后": 584,
      "吏": 585,
      "吐": 586,
      "向": 587,
      "吒": 588,
      "吓": 589,
      "吕": 590,
      "君": 591,
      "吝": 592,
      "吞": 593,
      "吟": 594,
      "吠": 595,
      "否": 596,
      "吧": 597,
      "吩": 598,
      "含": 599,
      "听": 600,
      "吮": 601,
      "启": 602,
      "吴": 603,
      "吵": 604,
      "吸": 605,
      "吹": 606,
      "吼": 607,
      "吽": 608,
      "吾": 609,
      "呀": 610,
      "呆": 611,
      "呈": 612,
      "告": 613,
      "呐": 614,
      "呕": 615,
      "呖": 616,
      "员": 617,
      "呜": 618,
      "呢": 619,
      "呦": 620,
      "周": 621,
      "呱": 622,
      "味": 623,
      "呵": 624,
      "呻": 625,
      "呼": 626,
      "命": 627,
      "咀": 628,
      "咂": 629,
      "咄": 630,
      "咆": 631,
      "咇": 632,
      "咋": 633,
      "和": 634,
      "咎": 635,
      "咏": 636,
      "咐": 637,
      "咒": 638,
      "咙": 639,
      "咚": 640,
      "咛": 641,
      "咤": 642,
      "咦": 643,
      "咧": 644,
      "咨": 645,
      "咪": 646,
      "咬": 647,
      "咱": 648,
      "咳": 649,
      "咶": 650,
      "咸": 651,
      "咽": 652,
      "咿": 653,
      "哀": 654,
      "品": 655,
      "哂": 656,
      "哃": 657,
      "哄": 658,
      "哇": 659,
      "哈": 660,
      "哉": 661,
      "响": 662,
      "哏": 663,
      "哑": 664,
      "哕": 665,
      "哗": 666,
      "哜": 667,
      "哝": 668,
      "哥": 669,
      "哦": 670,
      "哨": 671,
      "哩": 672,
      "哪": 673,
      "哭": 674,
      "哮": 675,
      "哲": 676,
      "哺": 677,
      "哼": 678,
      "哽": 679,
      "唆": 680,
      "唇": 681,
      "唉": 682,
      "唎": 683,
      "唏": 684,
      "唐": 685,
      "唝": 686,
      "唠": 687,
      "唣": 688,
      "唤": 689,
      "唧": 690,
      "唬": 691,
      "唯": 692,
      "唱": 693,
      "唳": 694,
      "唵": 695,
      "唾": 696,
      "唿": 697,
      "啃": 698,
      "啄": 699,
      "啅": 700,
      "商": 701,
      "啈": 702,
      "啊": 703,
      "啐": 704,
      "啕": 705,
      "啖": 706,
      "啭": 707,
      "啮": 708,
      "啯": 709,
      "啸": 710,
      "啻": 711,
      "啼": 712,
      "啾": 713,
      "喁": 714,
      "喂": 715,
      "喃": 716,
      "善": 717,
      "喇": 718,
      "喉": 719,
      "喊": 720,
      "喋": 721,
      "喏": 722,
      "喑": 723,
      "喔": 724,
      "喘": 725,
      "喙": 726,
      "喜": 727,
      "喝": 728,
      "喧": 729,
      "喨": 730,
      "喳": 731,
      "喷": 732,
      "嗅": 733,
      "嗉": 734,
      "嗒": 735,
      "嗓": 736,
      "嗔": 737,
      "嗗": 738,
      "嗛": 739,
      "嗟": 740,
      "嗣": 741,
      "嗤": 742,
      "嗳": 743,
      "嗽": 744,
      "嘈": 745,
      "嘉": 746,
      "嘎": 747,
      "嘑": 748,
      "嘘": 749,
      "嘛": 750,
      "嘤": 751,
      "嘬": 752,
      "嘱": 753,
      "嘲": 754,
      "嘴": 755,
      "嘶": 756,
      "嘹": 757,
      "嘻": 758,
      "噀": 759,
      "噇": 760,
      "噘": 761,
      "噙": 762,
      "噤": 763,
      "器": 764,
      "噪": 765,
      "噫": 766,
      "噬": 767,
      "噹": 768,
      "嚎": 769,
      "嚏": 770,
      "嚓": 771,
      "嚣": 772,
      "嚷": 773,
      "嚼": 774,
      "囊": 775,
      "囒": 776,
      "囔": 777,
      "囚": 778,
      "四": 779,
      "回": 780,
      "囟": 781,
      "因": 782,
      "团": 783,
      "囫": 784,
      "园": 785,
      "困": 786,
      "囱": 787,
      "围": 788,
      "囵": 789,
      "固": 790,
      "国": 791,
      "图": 792,
      "圃": 793,
      "圆": 794,
      "圈": 795,
      "圊": 796,
      "圜": 797,
      "圞": 798,
      "土": 799,
      "圣": 800,
      "在": 801,
      "圩": 802,
      "圭": 803,
      "圯": 804,
      "地": 805,
      "场": 806,
      "址": 807,
      "坂": 808,
      "均": 809,
      "坊": 810,
      "坎": 811,
      "坏": 812,
      "坐": 813,
      "坑": 814,
      "块": 815,
      "坚": 816,
      "坛": 817,
      "坞": 818,
      "坟": 819,
      "坠": 820,
      "坡": 821,
      "坤": 822,
      "坦": 823,
      "坫": 824,
      "坯": 825,
      "垂": 826,
      "垒": 827,
      "垓": 828,
      "垛": 829,
      "垢": 830,
      "垣": 831,
      "垫": 832,
      "埂": 833,
      "埃": 834,
      "埋": 835,
      "城": 836,
      "域": 837,
      "埠": 838,
      "培": 839,
      "基": 840,
      "堂": 841,
      "堆": 842,
      "堑": 843,
      "堕": 844,
      "堡": 845,
      "堤": 846,
      "堪": 847,
      "堰": 848,
      "堵": 849,
      "塌": 850,
      "塑": 851,
      "塔": 852,
      "塘": 853,
      "塞": 854,
      "填": 855,
      "塵": 856,
      "墀": 857,
      "境": 858,
      "墓": 859,
      "墙": 860,
      "增": 861,
      "墟": 862,
      "墨": 863,
      "墩": 864,
      "壁": 865,
      "壅": 866,
      "壑": 867,
      "壤": 868,
      "士": 869,
      "壬": 870,
      "壮": 871,
      "声": 872,
      "壳": 873,
      "壶": 874,
      "处": 875,
      "备": 876,
      "复": 877,
      "夏": 878,
      "夕": 879,
      "外": 880,
      "夙": 881,
      "多": 882,
      "夜": 883,
      "够": 884,
      "夤": 885,
      "大": 886,
      "天": 887,
      "太": 888,
      "夫": 889,
      "夬": 890,
      "夭": 891,
      "央": 892,
      "夯": 893,
      "失": 894,
      "头": 895,
      "夷": 896,
      "夸": 897,
      "夹": 898,
      "夺": 899,
      "奁": 900,
      "奇": 901,
      "奈": 902,
      "奉": 903,
      "奋": 904,
      "奎": 905,
      "奏": 906,
      "契": 907,
      "奔": 908,
      "奕": 909,
      "奖": 910,
      "套": 911,
      "奘": 912,
      "奠": 913,
      "奢": 914,
      "奥": 915,
      "女": 916,
      "奴": 917,
      "奶": 918,
      "奸": 919,
      "好": 920,
      "妁": 921,
      "如": 922,
      "妃": 923,
      "妄": 924,
      "妆": 925,
      "妇": 926,
      "妈": 927,
      "妍": 928,
      "妒": 929,
      "妓": 930,
      "妖": 931,
      "妙": 932,
      "妨": 933,
      "妩": 934,
      "妪": 935,
      "妲": 936,
      "妹": 937,
      "妻": 938,
      "妾": 939,
      "姆": 940,
      "姊": 941,
      "始": 942,
      "姌": 943,
      "姐": 944,
      "姑": 945,
      "姓": 946,
      "委": 947,
      "姚": 948,
      "姜": 949,
      "姢": 950,
      "姨": 951,
      "姬": 952,
      "姮": 953,
      "姹": 954,
      "姻": 955,
      "姿": 956,
      "威": 957,
      "娃": 958,
      "娄": 959,
      "娆": 960,
      "娇": 961,
      "娉": 962,
      "娑": 963,
      "娘": 964,
      "娜": 965,
      "娟": 966,
      "娥": 967,
      "娩": 968,
      "娱": 969,
      "娲": 970,
      "娶": 971,
      "娼": 972,
      "婆": 973,
      "婚": 974,
      "婢": 975,
      "婪": 976,
      "婴": 977,
      "婵": 978,
      "婷": 979,
      "婿": 980,
      "媒": 981,
      "媚": 982,
      "媳": 983,
      "媸": 984,
      "媾": 985,
      "嫁": 986,
      "嫂": 987,
      "嫉": 988,
      "嫌": 989,
      "嫔": 990,
      "嫖": 991,
      "嫡": 992,
      "嫣": 993,
      "嫦": 994,
      "嫩": 995,
      "嫱": 996,
      "嬉": 997,
      "嬝": 998,
      "孀": 999,
      "子": 1000,
      "孔": 1001,
      "孕": 1002,
      "字": 1003,
      "存": 1004,
      "孙": 1005,
      "孛": 1006,
      "孜": 1007,
      "孝": 1008,
      "孟": 1009,
      "季": 1010,
      "孤": 1011,
      "学": 1012,
      "孩": 1013,
      "孰": 1014,
      "孺": 1015,
      "孽": 1016,
      "宁": 1017,
      "它": 1018,
      "宅": 1019,
      "宇": 1020,
      "守": 1021,
      "安": 1022,
      "宋": 1023,
      "完": 1024,
      "宏": 1025,
      "宗": 1026,
      "官": 1027,
      "宙": 1028,
      "定": 1029,
      "宛": 1030,
      "宜": 1031,
      "宝": 1032,
      "实": 1033,
      "宠": 1034,
      "审": 1035,
      "客": 1036,
      "宣": 1037,
      "室": 1038,
      "宥": 1039,
      "宦": 1040,
      "宪": 1041,
      "宫": 1042,
      "宰": 1043,
      "害": 1044,
      "宴": 1045,
      "宵": 1046,
      "家": 1047,
      "宸": 1048,
      "容": 1049,
      "宽": 1050,
      "宾": 1051,
      "宿": 1052,
      "寂": 1053,
      "寄": 1054,
      "寅": 1055,
      "密": 1056,
      "寇": 1057,
      "富": 1058,
      "寐": 1059,
      "寒": 1060,
      "寓": 1061,
      "寝": 1062,
      "寞": 1063,
      "察": 1064,
      "寡": 1065,
      "寥": 1066,
      "寨": 1067,
      "寮": 1068,
      "寰": 1069,
      "寸": 1070,
      "对": 1071,
      "寺": 1072,
      "寻": 1073,
      "导": 1074,
      "寿": 1075,
      "封": 1076,
      "射": 1077,
      "将": 1078,
      "尉": 1079,
      "尊": 1080,
      "小": 1081,
      "少": 1082,
      "尔": 1083,
      "尖": 1084,
      "尘": 1085,
      "尚": 1086,
      "尝": 1087,
      "尤": 1088,
      "尧": 1089,
      "尪": 1090,
      "尬": 1091,
      "就": 1092,
      "尴": 1093,
      "尸": 1094,
      "尺": 1095,
      "尻": 1096,
      "尼": 1097,
      "尽": 1098,
      "尾": 1099,
      "尿": 1100,
      "局": 1101,
      "屁": 1102,
      "层": 1103,
      "居": 1104,
      "屈": 1105,
      "屉": 1106,
      "届": 1107,
      "屋": 1108,
      "屎": 1109,
      "屏": 1110,
      "屑": 1111,
      "展": 1112,
      "属": 1113,
      "屠": 1114,
      "屡": 1115,
      "屣": 1116,
      "履": 1117,
      "屯": 1118,
      "山": 1119,
      "屹": 1120,
      "岁": 1121,
      "岂": 1122,
      "岑": 1123,
      "岖": 1124,
      "岗": 1125,
      "岚": 1126,
      "岛": 1127,
      "岩": 1128,
      "岫": 1129,
      "岭": 1130,
      "岱": 1131,
      "岳": 1132,
      "岸": 1133,
      "峤": 1134,
      "峥": 1135,
      "峦": 1136,
      "峨": 1137,
      "峪": 1138,
      "峭": 1139,
      "峰": 1140,
      "峻": 1141,
      "崇": 1142,
      "崎": 1143,
      "崒": 1144,
      "崔": 1145,
      "崖": 1146,
      "崚": 1147,
      "崩": 1148,
      "嵂": 1149,
      "嵌": 1150,
      "嵎": 1151,
      "嵘": 1152,
      "嵩": 1153,
      "嵯": 1154,
      "嶂": 1155,
      "嶒": 1156,
      "嶝": 1157,
      "嶷": 1158,
      "巅": 1159,
      "巉": 1160,
      "巍": 1161,
      "川": 1162,
      "州": 1163,
      "巡": 1164,
      "巢": 1165,
      "工": 1166,
      "左": 1167,
      "巧": 1168,
      "巨": 1169,
      "巩": 1170,
      "巫": 1171,
      "差": 1172,
      "己": 1173,
      "已": 1174,
      "巳": 1175,
      "巴": 1176,
      "巷": 1177,
      "巽": 1178,
      "巾": 1179,
      "币": 1180,
      "市": 1181,
      "布": 1182,
      "帅": 1183,
      "师": 1184,
      "希": 1185,
      "帏": 1186,
      "帐": 1187,
      "帓": 1188,
      "帔": 1189,
      "帕": 1190,
      "帖": 1191,
      "帘": 1192,
      "帚": 1193,
      "帛": 1194,
      "帜": 1195,
      "帝": 1196,
      "带": 1197,
      "席": 1198,
      "帮": 1199,
      "帷": 1200,
      "常": 1201,
      "帽": 1202,
      "幄": 1203,
      "幅": 1204,
      "幌": 1205,
      "幔": 1206,
      "幕": 1207,
      "幛": 1208,
      "幡": 1209,
      "幢": 1210,
      "干": 1211,
      "平": 1212,
      "年": 1213,
      "并": 1214,
      "幸": 1215,
      "幻": 1216,
      "幼": 1217,
      "幽": 1218,
      "广": 1219,
      "庄": 1220,
      "庆": 1221,
      "庇": 1222,
      "床": 1223,
      "序": 1224,
      "庐": 1225,
      "庑": 1226,
      "库": 1227,
      "应": 1228,
      "底": 1229,
      "庖": 1230,
      "店": 1231,
      "庙": 1232,
      "庚": 1233,
      "府": 1234,
      "庞": 1235,
      "废": 1236,
      "度": 1237,
      "座": 1238,
      "庭": 1239,
      "庵": 1240,
      "庶": 1241,
      "康": 1242,
      "庸": 1243,
      "庾": 1244,
      "廉": 1245,
      "廊": 1246,
      "廓": 1247,
      "延": 1248,
      "廷": 1249,
      "建": 1250,
      "开": 1251,
      "弁": 1252,
      "异": 1253,
      "弃": 1254,
      "弄": 1255,
      "弈": 1256,
      "弊": 1257,
      "式": 1258,
      "弓": 1259,
      "引": 1260,
      "弘": 1261,
      "弟": 1262,
      "张": 1263,
      "弥": 1264,
      "弦": 1265,
      "弩": 1266,
      "弭": 1267,
      "弯": 1268,
      "弱": 1269,
      "弹": 1270,
      "强": 1271,
      "弼": 1272,
      "彀": 1273,
      "归": 1274,
      "当": 1275,
      "录": 1276,
      "彘": 1277,
      "形": 1278,
      "彤": 1279,
      "彩": 1280,
      "彪": 1281,
      "彭": 1282,
      "彰": 1283,
      "影": 1284,
      "役": 1285,
      "彻": 1286,
      "彼": 1287,
      "往": 1288,
      "征": 1289,
      "径": 1290,
      "待": 1291,
      "很": 1292,
      "徉": 1293,
      "徊": 1294,
      "律": 1295,
      "徐": 1296,
      "徒": 1297,
      "得": 1298,
      "徘": 1299,
      "徜": 1300,
      "御": 1301,
      "循": 1302,
      "徭": 1303,
      "微": 1304,
      "徵": 1305,
      "德": 1306,
      "心": 1307,
      "必": 1308,
      "忆": 1309,
      "忌": 1310,
      "忍": 1311,
      "忏": 1312,
      "忐": 1313,
      "忑": 1314,
      "忒": 1315,
      "忖": 1316,
      "志": 1317,
      "忘": 1318,
      "忙": 1319,
      "忝": 1320,
      "忠": 1321,
      "忤": 1322,
      "忧": 1323,
      "快": 1324,
      "念": 1325,
      "忻": 1326,
      "忽": 1327,
      "忿": 1328,
      "怀": 1329,
      "态": 1330,
      "怅": 1331,
      "怆": 1332,
      "怎": 1333,
      "怒": 1334,
      "怕": 1335,
      "怖": 1336,
      "怛": 1337,
      "怜": 1338,
      "思": 1339,
      "怠": 1340,
      "怡": 1341,
      "急": 1342,
      "性": 1343,
      "怨": 1344,
      "怪": 1345,
      "怯": 1346,
      "总": 1347,
      "恁": 1348,
      "恃": 1349,
      "恋": 1350,
      "恍": 1351,
      "恐": 1352,
      "恒": 1353,
      "恓": 1354,
      "恕": 1355,
      "恙": 1356,
      "恢": 1357,
      "恣": 1358,
      "恤": 1359,
      "恧": 1360,
      "恨": 1361,
      "恩": 1362,
      "恬": 1363,
      "恭": 1364,
      "息": 1365,
      "恰": 1366,
      "恳": 1367,
      "恶": 1368,
      "恹": 1369,
      "恻": 1370,
      "恼": 1371,
      "悄": 1372,
      "悉": 1373,
      "悔": 1374,
      "悖": 1375,
      "悚": 1376,
      "悟": 1377,
      "悠": 1378,
      "患": 1379,
      "悦": 1380,
      "悬": 1381,
      "悭": 1382,
      "悮": 1383,
      "悯": 1384,
      "悲": 1385,
      "悴": 1386,
      "情": 1387,
      "惊": 1388,
      "惑": 1389,
      "惚": 1390,
      "惜": 1391,
      "惟": 1392,
      "惠": 1393,
      "惧": 1394,
      "惨": 1395,
      "惩": 1396,
      "惫": 1397,
      "惭": 1398,
      "惮": 1399,
      "惯": 1400,
      "惰": 1401,
      "想": 1402,
      "惴": 1403,
      "惶": 1404,
      "惹": 1405,
      "惺": 1406,
      "愁": 1407,
      "愆": 1408,
      "愈": 1409,
      "愉": 1410,
      "愍": 1411,
      "意": 1412,
      "愕": 1413,
      "愚": 1414,
      "感": 1415,
      "愧": 1416,
      "愿": 1417,
      "慈": 1418,
      "慌": 1419,
      "慎": 1420,
      "慕": 1421,
      "慢": 1422,
      "慧": 1423,
      "慨": 1424,
      "慰": 1425,
      "慵": 1426,
      "慷": 1427,
      "慽": 1428,
      "憎": 1429,
      "憔": 1430,
      "憨": 1431,
      "憩": 1432,
      "懂": 1433,
      "懈": 1434,
      "懊": 1435,
      "懒": 1436,
      "懞": 1437,
      "懦": 1438,
      "懵": 1439,
      "懿": 1440,
      "戈": 1441,
      "戊": 1442,
      "戌": 1443,
      "戎": 1444,
      "戏": 1445,
      "成": 1446,
      "我": 1447,
      "戒": 1448,
      "戕": 1449,
      "或": 1450,
      "戗": 1451,
      "战": 1452,
      "戚": 1453,
      "戛": 1454,
      "戟": 1455,
      "截": 1456,
      "戮": 1457,
      "戳": 1458,
      "戴": 1459,
      "户": 1460,
      "房": 1461,
      "所": 1462,
      "扁": 1463,
      "扆": 1464,
      "扇": 1465,
      "扉": 1466,
      "手": 1467,
      "才": 1468,
      "扎": 1469,
      "扑": 1470,
      "扒": 1471,
      "打": 1472,
      "托": 1473,
      "扛": 1474,
      "扠": 1475,
      "扢": 1476,
      "扣": 1477,
      "执": 1478,
      "扫": 1479,
      "扬": 1480,
      "扭": 1481,
      "扮": 1482,
      "扯": 1483,
      "扰": 1484,
      "扳": 1485,
      "扶": 1486,
      "批": 1487,
      "找": 1488,
      "承": 1489,
      "抄": 1490,
      "抅": 1491,
      "抉": 1492,
      "把": 1493,
      "抑": 1494,
      "抒": 1495,
      "抓": 1496,
      "投": 1497,
      "抖": 1498,
      "抗": 1499,
      "折": 1500,
      "抚": 1501,
      "抛": 1502,
      "抟": 1503,
      "抠": 1504,
      "抢": 1505,
      "护": 1506,
      "报": 1507,
      "披": 1508,
      "抬": 1509,
      "抱": 1510,
      "抵": 1511,
      "抹": 1512,
      "押": 1513,
      "抽": 1514,
      "拂": 1515,
      "拄": 1516,
      "担": 1517,
      "拆": 1518,
      "拇": 1519,
      "拈": 1520,
      "拉": 1521,
      "拊": 1522,
      "拌": 1523,
      "拍": 1524,
      "拐": 1525,
      "拑": 1526,
      "拒": 1527,
      "拔": 1528,
      "拖": 1529,
      "拗": 1530,
      "拘": 1531,
      "拙": 1532,
      "拚": 1533,
      "招": 1534,
      "拜": 1535,
      "拟": 1536,
      "拢": 1537,
      "拣": 1538,
      "拥": 1539,
      "拦": 1540,
      "拧": 1541,
      "拨": 1542,
      "择": 1543,
      "括": 1544,
      "拭": 1545,
      "拯": 1546,
      "拱": 1547,
      "拳": 1548,
      "拴": 1549,
      "拶": 1550,
      "拷": 1551,
      "拽": 1552,
      "拾": 1553,
      "拿": 1554,
      "持": 1555,
      "挂": 1556,
      "指": 1557,
      "挈": 1558,
      "按": 1559,
      "挎": 1560,
      "挑": 1561,
      "挖": 1562,
      "挛": 1563,
      "挜": 1564,
      "挝": 1565,
      "挞": 1566,
      "挟": 1567,
      "挠": 1568,
      "挡": 1569,
      "挣": 1570,
      "挤": 1571,
      "挥": 1572,
      "挦": 1573,
      "挨": 1574,
      "挪": 1575,
      "挫": 1576,
      "振": 1577,
      "挹": 1578,
      "挺": 1579,
      "挽": 1580,
      "捆": 1581,
      "捉": 1582,
      "捋": 1583,
      "捍": 1584,
      "捎": 1585,
      "捏": 1586,
      "捐": 1587,
      "捕": 1588,
      "捘": 1589,
      "捞": 1590,
      "损": 1591,
      "捡": 1592,
      "换": 1593,
      "捣": 1594,
      "捧": 1595,
      "据": 1596,
      "捱": 1597,
      "捶": 1598,
      "捷": 1599,
      "捻": 1600,
      "捽": 1601,
      "掀": 1602,
      "掂": 1603,
      "掇": 1604,
      "授": 1605,
      "掉": 1606,
      "掌": 1607,
      "掏": 1608,
      "掐": 1609,
      "排": 1610,
      "掘": 1611,
      "掠": 1612,
      "探": 1613,
      "掣": 1614,
      "掤": 1615,
      "接": 1616,
      "控": 1617,
      "推": 1618,
      "掩": 1619,
      "措": 1620,
      "掬": 1621,
      "掭": 1622,
      "掮": 1623,
      "掯": 1624,
      "掳": 1625,
      "掷": 1626,
      "掼": 1627,
      "揉": 1628,
      "揌": 1629,
      "描": 1630,
      "提": 1631,
      "插": 1632,
      "揖": 1633,
      "揝": 1634,
      "揞": 1635,
      "握": 1636,
      "揣": 1637,
      "揩": 1638,
      "揪": 1639,
      "揫": 1640,
      "揭": 1641,
      "揲": 1642,
      "援": 1643,
      "揸": 1644,
      "揾": 1645,
      "搀": 1646,
      "搁": 1647,
      "搂": 1648,
      "搅": 1649,
      "搊": 1650,
      "搓": 1651,
      "搔": 1652,
      "搕": 1653,
      "搜": 1654,
      "搠": 1655,
      "搧": 1656,
      "搪": 1657,
      "搫": 1658,
      "搬": 1659,
      "搭": 1660,
      "搲": 1661,
      "搴": 1662,
      "携": 1663,
      "搽": 1664,
      "摄": 1665,
      "摆": 1666,
      "摇": 1667,
      "摊": 1668,
      "摔": 1669,
      "摘": 1670,
      "摧": 1671,
      "摩": 1672,
      "摸": 1673,
      "摺": 1674,
      "撇": 1675,
      "撑": 1676,
      "撒": 1677,
      "撞": 1678,
      "撤": 1679,
      "撩": 1680,
      "撬": 1681,
      "播": 1682,
      "撮": 1683,
      "撺": 1684,
      "撼": 1685,
      "擂": 1686,
      "擅": 1687,
      "操": 1688,
      "擎": 1689,
      "擒": 1690,
      "擞": 1691,
      "擢": 1692,
      "擦": 1693,
      "攀": 1694,
      "攒": 1695,
      "攘": 1696,
      "攥": 1697,
      "支": 1698,
      "收": 1699,
      "攸": 1700,
      "改": 1701,
      "攻": 1702,
      "放": 1703,
      "政": 1704,
      "故": 1705,
      "效": 1706,
      "敌": 1707,
      "敏": 1708,
      "救": 1709,
      "敕": 1710,
      "敖": 1711,
      "教": 1712,
      "敛": 1713,
      "敝": 1714,
      "敞": 1715,
      "敢": 1716,
      "散": 1717,
      "敦": 1718,
      "敧": 1719,
      "敬": 1720,
      "数": 1721,
      "敲": 1722,
      "整": 1723,
      "敷": 1724,
      "文": 1725,
      "斋": 1726,
      "斑": 1727,
      "斓": 1728,
      "斗": 1729,
      "料": 1730,
      "斛": 1731,
      "斜": 1732,
      "斝": 1733,
      "斟": 1734,
      "斤": 1735,
      "斧": 1736,
      "斩": 1737,
      "斫": 1738,
      "断": 1739,
      "斯": 1740,
      "新": 1741,
      "方": 1742,
      "施": 1743,
      "旁": 1744,
      "旃": 1745,
      "旄": 1746,
      "旅": 1747,
      "旋": 1748,
      "旌": 1749,
      "族": 1750,
      "旒": 1751,
      "旗": 1752,
      "无": 1753,
      "既": 1754,
      "日": 1755,
      "旦": 1756,
      "旧": 1757,
      "旨": 1758,
      "早": 1759,
      "旬": 1760,
      "旭": 1761,
      "旱": 1762,
      "时": 1763,
      "旷": 1764,
      "旺": 1765,
      "旻": 1766,
      "昂": 1767,
      "昆": 1768,
      "昊": 1769,
      "昌": 1770,
      "明": 1771,
      "昏": 1772,
      "易": 1773,
      "昔": 1774,
      "昙": 1775,
      "星": 1776,
      "映": 1777,
      "春": 1778,
      "昧": 1779,
      "昨": 1780,
      "昭": 1781,
      "是": 1782,
      "昴": 1783,
      "昼": 1784,
      "显": 1785,
      "晃": 1786,
      "晋": 1787,
      "晌": 1788,
      "晏": 1789,
      "晒": 1790,
      "晓": 1791,
      "晕": 1792,
      "晖": 1793,
      "晚": 1794,
      "晡": 1795,
      "晤": 1796,
      "晦": 1797,
      "晨": 1798,
      "普": 1799,
      "景": 1800,
      "晰": 1801,
      "晴": 1802,
      "晶": 1803,
      "智": 1804,
      "晾": 1805,
      "暂": 1806,
      "暄": 1807,
      "暇": 1808,
      "暑": 1809,
      "暖": 1810,
      "暗": 1811,
      "暧": 1812,
      "暨": 1813,
      "暮": 1814,
      "暴": 1815,
      "曙": 1816,
      "曛": 1817,
      "曜": 1818,
      "曰": 1819,
      "曲": 1820,
      "曳": 1821,
      "更": 1822,
      "曹": 1823,
      "曼": 1824,
      "曾": 1825,
      "替": 1826,
      "最": 1827,
      "月": 1828,
      "有": 1829,
      "朋": 1830,
      "服": 1831,
      "朔": 1832,
      "朕": 1833,
      "朗": 1834,
      "望": 1835,
      "朝": 1836,
      "期": 1837,
      "朦": 1838,
      "木": 1839,
      "未": 1840,
      "末": 1841,
      "本": 1842,
      "札": 1843,
      "术": 1844,
      "朱": 1845,
      "朴": 1846,
      "朵": 1847,
      "机": 1848,
      "朽": 1849,
      "杀": 1850,
      "杂": 1851,
      "权": 1852,
      "杆": 1853,
      "杈": 1854,
      "杉": 1855,
      "杌": 1856,
      "李": 1857,
      "杏": 1858,
      "材": 1859,
      "村": 1860,
      "杓": 1861,
      "杖": 1862,
      "杜": 1863,
      "杞": 1864,
      "束": 1865,
      "杠": 1866,
      "条": 1867,
      "来": 1868,
      "杨": 1869,
      "杪": 1870,
      "杭": 1871,
      "杯": 1872,
      "杰": 1873,
      "杲": 1874,
      "杳": 1875,
      "杵": 1876,
      "杷": 1877,
      "杻": 1878,
      "松": 1879,
      "板": 1880,
      "极": 1881,
      "枇": 1882,
      "枉": 1883,
      "枋": 1884,
      "枒": 1885,
      "枓": 1886,
      "枕": 1887,
      "林": 1888,
      "枚": 1889,
      "果": 1890,
      "枝": 1891,
      "枢": 1892,
      "枣": 1893,
      "枪": 1894,
      "枫": 1895,
      "枭": 1896,
      "枯": 1897,
      "枰": 1898,
      "架": 1899,
      "枷": 1900,
      "枸": 1901,
      "柄": 1902,
      "柏": 1903,
      "某": 1904,
      "柑": 1905,
      "染": 1906,
      "柔": 1907,
      "柘": 1908,
      "柜": 1909,
      "柞": 1910,
      "查": 1911,
      "柩": 1912,
      "柬": 1913,
      "柮": 1914,
      "柯": 1915,
      "柰": 1916,
      "柱": 1917,
      "柳": 1918,
      "柴": 1919,
      "柿": 1920,
      "栅": 1921,
      "标": 1922,
      "栈": 1923,
      "栊": 1924,
      "栋": 1925,
      "栏": 1926,
      "树": 1927,
      "栓": 1928,
      "栖": 1929,
      "栗": 1930,
      "校": 1931,
      "株": 1932,
      "样": 1933,
      "核": 1934,
      "根": 1935,
      "格": 1936,
      "栽": 1937,
      "桂": 1938,
      "桃": 1939,
      "桅": 1940,
      "案": 1941,
      "桌": 1942,
      "桐": 1943,
      "桑": 1944,
      "桓": 1945,
      "桔": 1946,
      "桠": 1947,
      "桡": 1948,
      "桥": 1949,
      "桧": 1950,
      "桨": 1951,
      "桩": 1952,
      "桶": 1953,
      "梁": 1954,
      "梃": 1955,
      "梅": 1956,
      "梆": 1957,
      "梓": 1958,
      "梢": 1959,
      "梦": 1960,
      "梧": 1961,
      "梨": 1962,
      "梭": 1963,
      "梯": 1964,
      "械": 1965,
      "梳": 1966,
      "梵": 1967,
      "检": 1968,
      "棂": 1969,
      "棋": 1970,
      "棍": 1971,
      "棒": 1972,
      "棕": 1973,
      "棘": 1974,
      "棚": 1975,
      "棠": 1976,
      "棣": 1977,
      "棬": 1978,
      "森": 1979,
      "棱": 1980,
      "棵": 1981,
      "棹": 1982,
      "棺": 1983,
      "椅": 1984,
      "植": 1985,
      "椒": 1986,
      "椰": 1987,
      "椽": 1988,
      "椿": 1989,
      "楚": 1990,
      "楝": 1991,
      "楞": 1992,
      "楟": 1993,
      "楠": 1994,
      "楫": 1995,
      "楮": 1996,
      "楷": 1997,
      "楼": 1998,
      "概": 1999,
      "榄": 2000,
      "榆": 2001,
      "榇": 2002,
      "榔": 2003,
      "榛": 2004,
      "榜": 2005,
      "榧": 2006,
      "榴": 2007,
      "榻": 2008,
      "榾": 2009,
      "槁": 2010,
      "槃": 2011,
      "槅": 2012,
      "槌": 2013,
      "槎": 2014,
      "槐": 2015,
      "槛": 2016,
      "槟": 2017,
      "槺": 2018,
      "槽": 2019,
      "槿": 2020,
      "樊": 2021,
      "樗": 2022,
      "模": 2023,
      "樨": 2024,
      "横": 2025,
      "樯": 2026,
      "樱": 2027,
      "樵": 2028,
      "樽": 2029,
      "橄": 2030,
      "橐": 2031,
      "橘": 2032,
      "橙": 2033,
      "橦": 2034,
      "橹": 2035,
      "檀": 2036,
      "檄": 2037,
      "檎": 2038,
      "檐": 2039,
      "檠": 2040,
      "欠": 2041,
      "次": 2042,
      "欢": 2043,
      "欣": 2044,
      "欤": 2045,
      "欧": 2046,
      "欲": 2047,
      "欷": 2048,
      "欹": 2049,
      "欺": 2050,
      "款": 2051,
      "歇": 2052,
      "歉": 2053,
      "歌": 2054,
      "止": 2055,
      "正": 2056,
      "此": 2057,
      "步": 2058,
      "武": 2059,
      "歪": 2060,
      "歹": 2061,
      "死": 2062,
      "殁": 2063,
      "殃": 2064,
      "殄": 2065,
      "殊": 2066,
      "残": 2067,
      "殒": 2068,
      "殓": 2069,
      "殖": 2070,
      "殡": 2071,
      "段": 2072,
      "殷": 2073,
      "殿": 2074,
      "毁": 2075,
      "毂": 2076,
      "毋": 2077,
      "母": 2078,
      "每": 2079,
      "毒": 2080,
      "比": 2081,
      "毕": 2082,
      "毗": 2083,
      "毛": 2084,
      "毡": 2085,
      "毧": 2086,
      "毫": 2087,
      "毬": 2088,
      "毯": 2089,
      "氅": 2090,
      "氏": 2091,
      "氐": 2092,
      "民": 2093,
      "气": 2094,
      "氛": 2095,
      "氤": 2096,
      "氲": 2097,
      "水": 2098,
      "永": 2099,
      "汀": 2100,
      "汁": 2101,
      "求": 2102,
      "汉": 2103,
      "汊": 2104,
      "汗": 2105,
      "汛": 2106,
      "汝": 2107,
      "汞": 2108,
      "江": 2109,
      "池": 2110,
      "污": 2111,
      "汤": 2112,
      "汨": 2113,
      "汪": 2114,
      "汲": 2115,
      "汹": 2116,
      "汽": 2117,
      "汾": 2118,
      "沁": 2119,
      "沃": 2120,
      "沉": 2121,
      "沌": 2122,
      "沍": 2123,
      "沐": 2124,
      "沓": 2125,
      "沙": 2126,
      "沛": 2127,
      "沟": 2128,
      "没": 2129,
      "沤": 2130,
      "沥": 2131,
      "沦": 2132,
      "沧": 2133,
      "沫": 2134,
      "沱": 2135,
      "河": 2136,
      "沸": 2137,
      "油": 2138,
      "治": 2139,
      "沼": 2140,
      "沽": 2141,
      "沾": 2142,
      "沿": 2143,
      "泄": 2144,
      "泉": 2145,
      "泊": 2146,
      "泌": 2147,
      "泓": 2148,
      "法": 2149,
      "泗": 2150,
      "泛": 2151,
      "泞": 2152,
      "泠": 2153,
      "泡": 2154,
      "波": 2155,
      "泣": 2156,
      "泥": 2157,
      "注": 2158,
      "泪": 2159,
      "泫": 2160,
      "泯": 2161,
      "泰": 2162,
      "泱": 2163,
      "泻": 2164,
      "泼": 2165,
      "泽": 2166,
      "泾": 2167,
      "洁": 2168,
      "洋": 2169,
      "洒": 2170,
      "洗": 2171,
      "洛": 2172,
      "洞": 2173,
      "津": 2174,
      "洪": 2175,
      "洲": 2176,
      "活": 2177,
      "洼": 2178,
      "派": 2179,
      "流": 2180,
      "浅": 2181,
      "浆": 2182,
      "浇": 2183,
      "浊": 2184,
      "测": 2185,
      "浍": 2186,
      "济": 2187,
      "浑": 2188,
      "浓": 2189,
      "浙": 2190,
      "浦": 2191,
      "浩": 2192,
      "浪": 2193,
      "浮": 2194,
      "浴": 2195,
      "海": 2196,
      "浸": 2197,
      "浼": 2198,
      "涂": 2199,
      "涅": 2200,
      "消": 2201,
      "涉": 2202,
      "涌": 2203,
      "涎": 2204,
      "涓": 2205,
      "涕": 2206,
      "涛": 2207,
      "涝": 2208,
      "涤": 2209,
      "润": 2210,
      "涧": 2211,
      "涨": 2212,
      "涩": 2213,
      "涯": 2214,
      "液": 2215,
      "涴": 2216,
      "涵": 2217,
      "涸": 2218,
      "淄": 2219,
      "淅": 2220,
      "淇": 2221,
      "淋": 2222,
      "淌": 2223,
      "淘": 2224,
      "淙": 2225,
      "淡": 2226,
      "淤": 2227,
      "淫": 2228,
      "淬": 2229,
      "淮": 2230,
      "深": 2231,
      "淳": 2232,
      "混": 2233,
      "淹": 2234,
      "添": 2235,
      "清": 2236,
      "渊": 2237,
      "渍": 2238,
      "渎": 2239,
      "渐": 2240,
      "渔": 2241,
      "渗": 2242,
      "渚": 2243,
      "渠": 2244,
      "渡": 2245,
      "渣": 2246,
      "渤": 2247,
      "温": 2248,
      "渭": 2249,
      "港": 2250,
      "渰": 2251,
      "渴": 2252,
      "游": 2253,
      "渺": 2254,
      "湅": 2255,
      "湍": 2256,
      "湖": 2257,
      "湘": 2258,
      "湛": 2259,
      "湲": 2260,
      "湾": 2261,
      "湿": 2262,
      "溅": 2263,
      "源": 2264,
      "溜": 2265,
      "溟": 2266,
      "溢": 2267,
      "溪": 2268,
      "溲": 2269,
      "溶": 2270,
      "溺": 2271,
      "滂": 2272,
      "滉": 2273,
      "滋": 2274,
      "滑": 2275,
      "滔": 2276,
      "滚": 2277,
      "滞": 2278,
      "满": 2279,
      "滥": 2280,
      "滩": 2281,
      "滴": 2282,
      "漆": 2283,
      "漉": 2284,
      "漏": 2285,
      "漓": 2286,
      "演": 2287,
      "漕": 2288,
      "漠": 2289,
      "漩": 2290,
      "漫": 2291,
      "漱": 2292,
      "漷": 2293,
      "漾": 2294,
      "潇": 2295,
      "潘": 2296,
      "潜": 2297,
      "潠": 2298,
      "潦": 2299,
      "潭": 2300,
      "潮": 2301,
      "潺": 2302,
      "澄": 2303,
      "澌": 2304,
      "澜": 2305,
      "澡": 2306,
      "澳": 2307,
      "澹": 2308,
      "激": 2309,
      "濛": 2310,
      "濯": 2311,
      "瀑": 2312,
      "瀛": 2313,
      "瀼": 2314,
      "灌": 2315,
      "灒": 2316,
      "灞": 2317,
      "火": 2318,
      "灭": 2319,
      "灯": 2320,
      "灰": 2321,
      "灵": 2322,
      "灶": 2323,
      "灸": 2324,
      "灼": 2325,
      "灾": 2326,
      "灿": 2327,
      "炁": 2328,
      "炉": 2329,
      "炊": 2330,
      "炎": 2331,
      "炒": 2332,
      "炖": 2333,
      "炙": 2334,
      "炫": 2335,
      "炬": 2336,
      "炭": 2337,
      "炮": 2338,
      "炳": 2339,
      "炷": 2340,
      "炸": 2341,
      "点": 2342,
      "炼": 2343,
      "炽": 2344,
      "烁": 2345,
      "烂": 2346,
      "烈": 2347,
      "烘": 2348,
      "烙": 2349,
      "烛": 2350,
      "烟": 2351,
      "烤": 2352,
      "烦": 2353,
      "烧": 2354,
      "烨": 2355,
      "烫": 2356,
      "烬": 2357,
      "热": 2358,
      "烹": 2359,
      "焃": 2360,
      "焉": 2361,
      "焕": 2362,
      "焙": 2363,
      "焚": 2364,
      "焜": 2365,
      "焦": 2366,
      "焯": 2367,
      "焰": 2368,
      "然": 2369,
      "煅": 2370,
      "煌": 2371,
      "煎": 2372,
      "煞": 2373,
      "煠": 2374,
      "煤": 2375,
      "照": 2376,
      "煨": 2377,
      "煮": 2378,
      "煼": 2379,
      "煽": 2380,
      "熄": 2381,
      "熊": 2382,
      "熌": 2383,
      "熏": 2384,
      "熔": 2385,
      "熙": 2386,
      "熝": 2387,
      "熟": 2388,
      "熬": 2389,
      "熯": 2390,
      "熳": 2391,
      "燃": 2392,
      "燎": 2393,
      "燕": 2394,
      "燥": 2395,
      "燧": 2396,
      "爆": 2397,
      "爇": 2398,
      "爊": 2399,
      "爨": 2400,
      "爪": 2401,
      "爬": 2402,
      "爰": 2403,
      "爱": 2404,
      "爵": 2405,
      "父": 2406,
      "爷": 2407,
      "爹": 2408,
      "爻": 2409,
      "爽": 2410,
      "片": 2411,
      "版": 2412,
      "牌": 2413,
      "牒": 2414,
      "牖": 2415,
      "牙": 2416,
      "牛": 2417,
      "牟": 2418,
      "牡": 2419,
      "牢": 2420,
      "牧": 2421,
      "物": 2422,
      "牯": 2423,
      "牲": 2424,
      "牵": 2425,
      "牸": 2426,
      "特": 2427,
      "牺": 2428,
      "犀": 2429,
      "犁": 2430,
      "犊": 2431,
      "犒": 2432,
      "犬": 2433,
      "犭": 2434,
      "犯": 2435,
      "犴": 2436,
      "状": 2437,
      "犹": 2438,
      "犺": 2439,
      "犼": 2440,
      "狂": 2441,
      "狈": 2442,
      "狎": 2443,
      "狐": 2444,
      "狔": 2445,
      "狗": 2446,
      "狞": 2447,
      "狠": 2448,
      "狡": 2449,
      "狢": 2450,
      "狤": 2451,
      "狨": 2452,
      "独": 2453,
      "狭": 2454,
      "狮": 2455,
      "狰": 2456,
      "狱": 2457,
      "狲": 2458,
      "狸": 2459,
      "狻": 2460,
      "狼": 2461,
      "猁": 2462,
      "猊": 2463,
      "猍": 2464,
      "猎": 2465,
      "猕": 2466,
      "猖": 2467,
      "猛": 2468,
      "猜": 2469,
      "猢": 2470,
      "猥": 2471,
      "猩": 2472,
      "猪": 2473,
      "猫": 2474,
      "献": 2475,
      "猱": 2476,
      "猴": 2477,
      "猷": 2478,
      "猾": 2479,
      "猿": 2480,
      "獐": 2481,
      "獒": 2482,
      "獗": 2483,
      "獝": 2484,
      "獠": 2485,
      "獬": 2486,
      "獭": 2487,
      "獾": 2488,
      "玄": 2489,
      "率": 2490,
      "玉": 2491,
      "王": 2492,
      "玎": 2493,
      "玑": 2494,
      "玛": 2495,
      "玠": 2496,
      "玨": 2497,
      "玩": 2498,
      "玫": 2499,
      "环": 2500,
      "现": 2501,
      "玲": 2502,
      "玳": 2503,
      "玷": 2504,
      "玻": 2505,
      "珀": 2506,
      "珉": 2507,
      "珊": 2508,
      "珍": 2509,
      "珑": 2510,
      "珠": 2511,
      "珪": 2512,
      "班": 2513,
      "珮": 2514,
      "珰": 2515,
      "球": 2516,
      "琅": 2517,
      "理": 2518,
      "琉": 2519,
      "琐": 2520,
      "琗": 2521,
      "琚": 2522,
      "琢": 2523,
      "琥": 2524,
      "琪": 2525,
      "琮": 2526,
      "琳": 2527,
      "琴": 2528,
      "琵": 2529,
      "琶": 2530,
      "琼": 2531,
      "瑀": 2532,
      "瑁": 2533,
      "瑕": 2534,
      "瑙": 2535,
      "瑚": 2536,
      "瑜": 2537,
      "瑞": 2538,
      "瑟": 2539,
      "瑠": 2540,
      "瑰": 2541,
      "瑶": 2542,
      "璃": 2543,
      "璋": 2544,
      "璞": 2545,
      "璧": 2546,
      "瓜": 2547,
      "瓠": 2548,
      "瓢": 2549,
      "瓣": 2550,
      "瓦": 2551,
      "瓮": 2552,
      "瓯": 2553,
      "瓴": 2554,
      "瓶": 2555,
      "甘": 2556,
      "甚": 2557,
      "甜": 2558,
      "生": 2559,
      "甥": 2560,
      "用": 2561,
      "甫": 2562,
      "田": 2563,
      "由": 2564,
      "甲": 2565,
      "申": 2566,
      "电": 2567,
      "男": 2568,
      "画": 2569,
      "畅": 2570,
      "界": 2571,
      "畏": 2572,
      "畔": 2573,
      "留": 2574,
      "畜": 2575,
      "略": 2576,
      "畦": 2577,
      "番": 2578,
      "畴": 2579,
      "畿": 2580,
      "疆": 2581,
      "疏": 2582,
      "疑": 2583,
      "疗": 2584,
      "疙": 2585,
      "疤": 2586,
      "疥": 2587,
      "疮": 2588,
      "疯": 2589,
      "疲": 2590,
      "疴": 2591,
      "疸": 2592,
      "疼": 2593,
      "疾": 2594,
      "病": 2595,
      "症": 2596,
      "痈": 2597,
      "痊": 2598,
      "痒": 2599,
      "痕": 2600,
      "痖": 2601,
      "痛": 2602,
      "痞": 2603,
      "痨": 2604,
      "痫": 2605,
      "痰": 2606,
      "痴": 2607,
      "瘖": 2608,
      "瘟": 2609,
      "瘢": 2610,
      "瘦": 2611,
      "瘩": 2612,
      "瘫": 2613,
      "瘴": 2614,
      "瘼": 2615,
      "癀": 2616,
      "癃": 2617,
      "癞": 2618,
      "癫": 2619,
      "癸": 2620,
      "登": 2621,
      "白": 2622,
      "百": 2623,
      "皂": 2624,
      "的": 2625,
      "皆": 2626,
      "皇": 2627,
      "皈": 2628,
      "皋": 2629,
      "皎": 2630,
      "皐": 2631,
      "皓": 2632,
      "皘": 2633,
      "皤": 2634,
      "皮": 2635,
      "皱": 2636,
      "皻": 2637,
      "皿": 2638,
      "盂": 2639,
      "盅": 2640,
      "盆": 2641,
      "盈": 2642,
      "益": 2643,
      "盏": 2644,
      "盐": 2645,
      "监": 2646,
      "盒": 2647,
      "盔": 2648,
      "盖": 2649,
      "盗": 2650,
      "盘": 2651,
      "盛": 2652,
      "盞": 2653,
      "盟": 2654,
      "目": 2655,
      "盱": 2656,
      "盲": 2657,
      "直": 2658,
      "相": 2659,
      "盹": 2660,
      "盼": 2661,
      "省": 2662,
      "眉": 2663,
      "看": 2664,
      "眙": 2665,
      "真": 2666,
      "眠": 2667,
      "眩": 2668,
      "眭": 2669,
      "眷": 2670,
      "眸": 2671,
      "眺": 2672,
      "眼": 2673,
      "着": 2674,
      "睁": 2675,
      "睆": 2676,
      "睍": 2677,
      "睖": 2678,
      "睛": 2679,
      "睡": 2680,
      "督": 2681,
      "睦": 2682,
      "睬": 2683,
      "睮": 2684,
      "睳": 2685,
      "睹": 2686,
      "睺": 2687,
      "瞅": 2688,
      "瞌": 2689,
      "瞎": 2690,
      "瞑": 2691,
      "瞒": 2692,
      "瞔": 2693,
      "瞥": 2694,
      "瞧": 2695,
      "瞬": 2696,
      "瞰": 2697,
      "瞻": 2698,
      "瞽": 2699,
      "矗": 2700,
      "矛": 2701,
      "矢": 2702,
      "矣": 2703,
      "知": 2704,
      "矧": 2705,
      "矩": 2706,
      "矫": 2707,
      "矬": 2708,
      "短": 2709,
      "矮": 2710,
      "石": 2711,
      "砂": 2712,
      "砌": 2713,
      "砍": 2714,
      "砑": 2715,
      "砖": 2716,
      "砚": 2717,
      "砥": 2718,
      "砧": 2719,
      "破": 2720,
      "砺": 2721,
      "砾": 2722,
      "硕": 2723,
      "硗": 2724,
      "硝": 2725,
      "硬": 2726,
      "碌": 2727,
      "碍": 2728,
      "碎": 2729,
      "碑": 2730,
      "碓": 2731,
      "碗": 2732,
      "碛": 2733,
      "碟": 2734,
      "碣": 2735,
      "碧": 2736,
      "碴": 2737,
      "確": 2738,
      "碾": 2739,
      "磁": 2740,
      "磊": 2741,
      "磐": 2742,
      "磕": 2743,
      "磨": 2744,
      "磬": 2745,
      "磲": 2746,
      "磴": 2747,
      "磷": 2748,
      "示": 2749,
      "礼": 2750,
      "社": 2751,
      "祀": 2752,
      "祇": 2753,
      "祈": 2754,
      "祐": 2755,
      "祖": 2756,
      "祗": 2757,
      "祚": 2758,
      "祛": 2759,
      "祝": 2760,
      "神": 2761,
      "祟": 2762,
      "祠": 2763,
      "祥": 2764,
      "票": 2765,
      "祭": 2766,
      "祯": 2767,
      "祷": 2768,
      "祸": 2769,
      "禀": 2770,
      "禁": 2771,
      "禄": 2772,
      "禅": 2773,
      "福": 2774,
      "禳": 2775,
      "禹": 2776,
      "禺": 2777,
      "离": 2778,
      "禽": 2779,
      "禾": 2780,
      "秀": 2781,
      "私": 2782,
      "秃": 2783,
      "秇": 2784,
      "秉": 2785,
      "秋": 2786,
      "种": 2787,
      "科": 2788,
      "秘": 2789,
      "租": 2790,
      "秤": 2791,
      "秦": 2792,
      "秧": 2793,
      "积": 2794,
      "称": 2795,
      "移": 2796,
      "秽": 2797,
      "秾": 2798,
      "稀": 2799,
      "程": 2800,
      "稍": 2801,
      "稔": 2802,
      "稚": 2803,
      "稠": 2804,
      "稳": 2805,
      "稷": 2806,
      "稻": 2807,
      "稼": 2808,
      "稽": 2809,
      "穑": 2810,
      "穗": 2811,
      "穰": 2812,
      "穴": 2813,
      "究": 2814,
      "穷": 2815,
      "穹": 2816,
      "空": 2817,
      "穿": 2818,
      "突": 2819,
      "窃": 2820,
      "窄": 2821,
      "窈": 2822,
      "窊": 2823,
      "窍": 2824,
      "窎": 2825,
      "窑": 2826,
      "窕": 2827,
      "窖": 2828,
      "窗": 2829,
      "窘": 2830,
      "窜": 2831,
      "窝": 2832,
      "窟": 2833,
      "窠": 2834,
      "窥": 2835,
      "窦": 2836,
      "窿": 2837,
      "立": 2838,
      "竖": 2839,
      "站": 2840,
      "竞": 2841,
      "竟": 2842,
      "章": 2843,
      "童": 2844,
      "竦": 2845,
      "竭": 2846,
      "端": 2847,
      "竹": 2848,
      "竺": 2849,
      "竿": 2850,
      "笃": 2851,
      "笄": 2852,
      "笆": 2853,
      "笊": 2854,
      "笋": 2855,
      "笏": 2856,
      "笑": 2857,
      "笔": 2858,
      "笙": 2859,
      "笛": 2860,
      "笞": 2861,
      "笠": 2862,
      "笤": 2863,
      "符": 2864,
      "第": 2865,
      "笼": 2866,
      "筇": 2867,
      "等": 2868,
      "筋": 2869,
      "筏": 2870,
      "筐": 2871,
      "筑": 2872,
      "筒": 2873,
      "答": 2874,
      "策": 2875,
      "筛": 2876,
      "筝": 2877,
      "筠": 2878,
      "筮": 2879,
      "筵": 2880,
      "筹": 2881,
      "签": 2882,
      "简": 2883,
      "箍": 2884,
      "箓": 2885,
      "箔": 2886,
      "箕": 2887,
      "算": 2888,
      "箝": 2889,
      "管": 2890,
      "箧": 2891,
      "箨": 2892,
      "箪": 2893,
      "箫": 2894,
      "箬": 2895,
      "箭": 2896,
      "箱": 2897,
      "箴": 2898,
      "箸": 2899,
      "篁": 2900,
      "篆": 2901,
      "篇": 2902,
      "篏": 2903,
      "篓": 2904,
      "篙": 2905,
      "篡": 2906,
      "篮": 2907,
      "篱": 2908,
      "篷": 2909,
      "篾": 2910,
      "簆": 2911,
      "簇": 2912,
      "簌": 2913,
      "簧": 2914,
      "簪": 2915,
      "簸": 2916,
      "簿": 2917,
      "籁": 2918,
      "籍": 2919,
      "籥": 2920,
      "米": 2921,
      "籴": 2922,
      "类": 2923,
      "粉": 2924,
      "粒": 2925,
      "粗": 2926,
      "粘": 2927,
      "粟": 2928,
      "粥": 2929,
      "粪": 2930,
      "粮": 2931,
      "粱": 2932,
      "粲": 2933,
      "粽": 2934,
      "精": 2935,
      "糊": 2936,
      "糕": 2937,
      "糖": 2938,
      "糙": 2939,
      "糜": 2940,
      "糟": 2941,
      "糠": 2942,
      "糯": 2943,
      "糰": 2944,
      "系": 2945,
      "紊": 2946,
      "素": 2947,
      "索": 2948,
      "紧": 2949,
      "紫": 2950,
      "累": 2951,
      "絮": 2952,
      "絯": 2953,
      "縺": 2954,
      "繁": 2955,
      "纠": 2956,
      "红": 2957,
      "纤": 2958,
      "纥": 2959,
      "约": 2960,
      "级": 2961,
      "纪": 2962,
      "纫": 2963,
      "纬": 2964,
      "纭": 2965,
      "纯": 2966,
      "纱": 2967,
      "纲": 2968,
      "纳": 2969,
      "纵": 2970,
      "纶": 2971,
      "纷": 2972,
      "纸": 2973,
      "纹": 2974,
      "纺": 2975,
      "纻": 2976,
      "纽": 2977,
      "线": 2978,
      "练": 2979,
      "细": 2980,
      "织": 2981,
      "终": 2982,
      "绊": 2983,
      "绍": 2984,
      "绎": 2985,
      "经": 2986,
      "绑": 2987,
      "绒": 2988,
      "结": 2989,
      "绔": 2990,
      "绕": 2991,
      "绘": 2992,
      "给": 2993,
      "绚": 2994,
      "绛": 2995,
      "络": 2996,
      "绝": 2997,
      "绞": 2998,
      "统": 2999,
      "绡": 3000,
      "绢": 3001,
      "绣": 3002,
      "绦": 3003,
      "继": 3004,
      "绩": 3005,
      "绪": 3006,
      "绫": 3007,
      "续": 3008,
      "绮": 3009,
      "绰": 3010,
      "绳": 3011,
      "维": 3012,
      "绵": 3013,
      "绶": 3014,
      "绷": 3015,
      "绸": 3016,
      "绺": 3017,
      "综": 3018,
      "绽": 3019,
      "绾": 3020,
      "绿": 3021,
      "缀": 3022,
      "缁": 3023,
      "缃": 3024,
      "缄": 3025,
      "缆": 3026,
      "缈": 3027,
      "缉": 3028,
      "缎": 3029,
      "缓": 3030,
      "缕": 3031,
      "编": 3032,
      "缘": 3033,
      "缚": 3034,
      "缝": 3035,
      "缟": 3036,
      "缠": 3037,
      "缢": 3038,
      "缤": 3039,
      "缥": 3040,
      "缨": 3041,
      "缩": 3042,
      "缪": 3043,
      "缭": 3044,
      "缯": 3045,
      "缰": 3046,
      "缴": 3047,
      "缸": 3048,
      "缺": 3049,
      "罄": 3050,
      "罍": 3051,
      "罐": 3052,
      "网": 3053,
      "罔": 3054,
      "罕": 3055,
      "罗": 3056,
      "罚": 3057,
      "罡": 3058,
      "罢": 3059,
      "罩": 3060,
      "罪": 3061,
      "置": 3062,
      "罴": 3063,
      "罾": 3064,
      "羁": 3065,
      "羊": 3066,
      "羌": 3067,
      "美": 3068,
      "羑": 3069,
      "羔": 3070,
      "羚": 3071,
      "羞": 3072,
      "羡": 3073,
      "群": 3074,
      "羲": 3075,
      "羸": 3076,
      "羹": 3077,
      "羽": 3078,
      "羿": 3079,
      "翁": 3080,
      "翅": 3081,
      "翊": 3082,
      "翎": 3083,
      "翔": 3084,
      "翕": 3085,
      "翘": 3086,
      "翛": 3087,
      "翠": 3088,
      "翡": 3089,
      "翥": 3090,
      "翩": 3091,
      "翮": 3092,
      "翰": 3093,
      "翱": 3094,
      "翳": 3095,
      "翻": 3096,
      "翼": 3097,
      "耀": 3098,
      "老": 3099,
      "考": 3100,
      "者": 3101,
      "而": 3102,
      "耍": 3103,
      "耐": 3104,
      "耕": 3105,
      "耗": 3106,
      "耘": 3107,
      "耙": 3108,
      "耨": 3109,
      "耳": 3110,
      "耶": 3111,
      "耸": 3112,
      "耻": 3113,
      "耽": 3114,
      "耿": 3115,
      "聆": 3116,
      "聊": 3117,
      "聋": 3118,
      "职": 3119,
      "聒": 3120,
      "联": 3121,
      "聘": 3122,
      "聚": 3123,
      "聪": 3124,
      "肃": 3125,
      "肆": 3126,
      "肉": 3127,
      "肋": 3128,
      "肌": 3129,
      "肐": 3130,
      "肓": 3131,
      "肖": 3132,
      "肘": 3133,
      "肚": 3134,
      "肝": 3135,
      "肠": 3136,
      "股": 3137,
      "肢": 3138,
      "肤": 3139,
      "肥": 3140,
      "肩": 3141,
      "肯": 3142,
      "肱": 3143,
      "育": 3144,
      "肴": 3145,
      "肺": 3146,
      "肾": 3147,
      "肿": 3148,
      "胀": 3149,
      "胁": 3150,
      "胃": 3151,
      "胄": 3152,
      "胆": 3153,
      "背": 3154,
      "胎": 3155,
      "胖": 3156,
      "胜": 3157,
      "胞": 3158,
      "胡": 3159,
      "胧": 3160,
      "胭": 3161,
      "胯": 3162,
      "胸": 3163,
      "能": 3164,
      "脂": 3165,
      "脆": 3166,
      "脉": 3167,
      "脊": 3168,
      "脏": 3169,
      "脐": 3170,
      "脑": 3171,
      "脓": 3172,
      "脚": 3173,
      "脯": 3174,
      "脱": 3175,
      "脸": 3176,
      "脾": 3177,
      "腆": 3178,
      "腊": 3179,
      "腋": 3180,
      "腌": 3181,
      "腐": 3182,
      "腑": 3183,
      "腔": 3184,
      "腕": 3185,
      "腥": 3186,
      "腭": 3187,
      "腮": 3188,
      "腰": 3189,
      "腹": 3190,
      "腻": 3191,
      "腼": 3192,
      "腾": 3193,
      "腿": 3194,
      "膀": 3195,
      "膂": 3196,
      "膊": 3197,
      "膏": 3198,
      "膘": 3199,
      "膛": 3200,
      "膜": 3201,
      "膝": 3202,
      "膨": 3203,
      "膭": 3204,
      "膳": 3205,
      "膻": 3206,
      "臀": 3207,
      "臁": 3208,
      "臂": 3209,
      "臊": 3210,
      "臣": 3211,
      "自": 3212,
      "臭": 3213,
      "至": 3214,
      "致": 3215,
      "臻": 3216,
      "臼": 3217,
      "臾": 3218,
      "舀": 3219,
      "舂": 3220,
      "舅": 3221,
      "舆": 3222,
      "舌": 3223,
      "舍": 3224,
      "舒": 3225,
      "舔": 3226,
      "舜": 3227,
      "舞": 3228,
      "舟": 3229,
      "航": 3230,
      "般": 3231,
      "舱": 3232,
      "舵": 3233,
      "船": 3234,
      "艇": 3235,
      "艎": 3236,
      "艮": 3237,
      "良": 3238,
      "艰": 3239,
      "色": 3240,
      "艳": 3241,
      "艺": 3242,
      "艾": 3243,
      "节": 3244,
      "芊": 3245,
      "芋": 3246,
      "芍": 3247,
      "芒": 3248,
      "芙": 3249,
      "芜": 3250,
      "芝": 3251,
      "芤": 3252,
      "芥": 3253,
      "芦": 3254,
      "芫": 3255,
      "芬": 3256,
      "芭": 3257,
      "芰": 3258,
      "花": 3259,
      "芳": 3260,
      "芹": 3261,
      "芽": 3262,
      "苇": 3263,
      "苋": 3264,
      "苍": 3265,
      "苏": 3266,
      "苑": 3267,
      "苓": 3268,
      "苔": 3269,
      "苗": 3270,
      "苞": 3271,
      "苟": 3272,
      "苡": 3273,
      "若": 3274,
      "苦": 3275,
      "苫": 3276,
      "英": 3277,
      "苹": 3278,
      "苾": 3279,
      "茂": 3280,
      "范": 3281,
      "茄": 3282,
      "茅": 3283,
      "茆": 3284,
      "茉": 3285,
      "茎": 3286,
      "茏": 3287,
      "茔": 3288,
      "茧": 3289,
      "茫": 3290,
      "茭": 3291,
      "茯": 3292,
      "茴": 3293,
      "茵": 3294,
      "茶": 3295,
      "茸": 3296,
      "荆": 3297,
      "荇": 3298,
      "草": 3299,
      "荐": 3300,
      "荒": 3301,
      "荔": 3302,
      "荙": 3303,
      "荜": 3304,
      "荞": 3305,
      "荠": 3306,
      "荡": 3307,
      "荣": 3308,
      "荤": 3309,
      "荧": 3310,
      "荫": 3311,
      "荬": 3312,
      "药": 3313,
      "荷": 3314,
      "荻": 3315,
      "荼": 3316,
      "荽": 3317,
      "莉": 3318,
      "莎": 3319,
      "莙": 3320,
      "莫": 3321,
      "莱": 3322,
      "莲": 3323,
      "莴": 3324,
      "获": 3325,
      "莹": 3326,
      "莺": 3327,
      "莽": 3328,
      "菁": 3329,
      "菂": 3330,
      "菇": 3331,
      "菊": 3332,
      "菑": 3333,
      "菔": 3334,
      "菖": 3335,
      "菘": 3336,
      "菜": 3337,
      "菠": 3338,
      "菡": 3339,
      "菩": 3340,
      "菰": 3341,
      "菱": 3342,
      "菲": 3343,
      "菽": 3344,
      "菾": 3345,
      "萄": 3346,
      "萌": 3347,
      "萍": 3348,
      "萏": 3349,
      "萝": 3350,
      "萤": 3351,
      "营": 3352,
      "萦": 3353,
      "萧": 3354,
      "萨": 3355,
      "萱": 3356,
      "萼": 3357,
      "落": 3358,
      "著": 3359,
      "葛": 3360,
      "葡": 3361,
      "董": 3362,
      "葩": 3363,
      "葫": 3364,
      "葬": 3365,
      "葭": 3366,
      "葱": 3367,
      "葵": 3368,
      "蒂": 3369,
      "蒙": 3370,
      "蒜": 3371,
      "蒭": 3372,
      "蒯": 3373,
      "蒲": 3374,
      "蒸": 3375,
      "蒹": 3376,
      "蒺": 3377,
      "蒿": 3378,
      "蓁": 3379,
      "蓄": 3380,
      "蓉": 3381,
      "蓍": 3382,
      "蓏": 3383,
      "蓑": 3384,
      "蓝": 3385,
      "蓦": 3386,
      "蓬": 3387,
      "蓼": 3388,
      "蔑": 3389,
      "蔓": 3390,
      "蔗": 3391,
      "蔬": 3392,
      "蔷": 3393,
      "蔼": 3394,
      "蔽": 3395,
      "蕃": 3396,
      "蕈": 3397,
      "蕉": 3398,
      "蕊": 3399,
      "蕖": 3400,
      "蕙": 3401,
      "蕨": 3402,
      "蕴": 3403,
      "薄": 3404,
      "薅": 3405,
      "薇": 3406,
      "薏": 3407,
      "薛": 3408,
      "薜": 3409,
      "薤": 3410,
      "薪": 3411,
      "薯": 3412,
      "薰": 3413,
      "藏": 3414,
      "藐": 3415,
      "藓": 3416,
      "藕": 3417,
      "藜": 3418,
      "藤": 3419,
      "藩": 3420,
      "藻": 3421,
      "藿": 3422,
      "蘋": 3423,
      "蘑": 3424,
      "蘛": 3425,
      "蘩": 3426,
      "蘸": 3427,
      "蘼": 3428,
      "虀": 3429,
      "虎": 3430,
      "虏": 3431,
      "虐": 3432,
      "虑": 3433,
      "虔": 3434,
      "虚": 3435,
      "虞": 3436,
      "虫": 3437,
      "虬": 3438,
      "虱": 3439,
      "虹": 3440,
      "虼": 3441,
      "虽": 3442,
      "虾": 3443,
      "蚁": 3444,
      "蚂": 3445,
      "蚊": 3446,
      "蚌": 3447,
      "蚓": 3448,
      "蚕": 3449,
      "蚣": 3450,
      "蚤": 3451,
      "蚯": 3452,
      "蛀": 3453,
      "蛆": 3454,
      "蛇": 3455,
      "蛋": 3456,
      "蛎": 3457,
      "蛏": 3458,
      "蛙": 3459,
      "蛛": 3460,
      "蛟": 3461,
      "蛤": 3462,
      "蛩": 3463,
      "蛭": 3464,
      "蛮": 3465,
      "蛰": 3466,
      "蛱": 3467,
      "蛾": 3468,
      "蜀": 3469,
      "蜂": 3470,
      "蜃": 3471,
      "蜇": 3472,
      "蜈": 3473,
      "蜋": 3474,
      "蜍": 3475,
      "蜓": 3476,
      "蜗": 3477,
      "蜘": 3478,
      "蜚": 3479,
      "蜜": 3480,
      "蜡": 3481,
      "蜢": 3482,
      "蜷": 3483,
      "蜻": 3484,
      "蜾": 3485,
      "蝇": 3486,
      "蝉": 3487,
      "蝎": 3488,
      "蝙": 3489,
      "蝠": 3490,
      "蝴": 3491,
      "蝶": 3492,
      "蝼": 3493,
      "螃": 3494,
      "融": 3495,
      "螭": 3496,
      "螺": 3497,
      "蟆": 3498,
      "蟋": 3499,
      "蟒": 3500,
      "蟟": 3501,
      "蟠": 3502,
      "蟭": 3503,
      "蟮": 3504,
      "蟹": 3505,
      "蟾": 3506,
      "蠃": 3507,
      "蠙": 3508,
      "蠢": 3509,
      "蠲": 3510,
      "血": 3511,
      "行": 3512,
      "衍": 3513,
      "衔": 3514,
      "衕": 3515,
      "街": 3516,
      "衙": 3517,
      "衠": 3518,
      "衡": 3519,
      "衢": 3520,
      "衣": 3521,
      "补": 3522,
      "表": 3523,
      "衫": 3524,
      "衬": 3525,
      "衰": 3526,
      "衲": 3527,
      "衷": 3528,
      "衽": 3529,
      "衾": 3530,
      "袁": 3531,
      "袂": 3532,
      "袄": 3533,
      "袅": 3534,
      "袈": 3535,
      "袋": 3536,
      "袍": 3537,
      "袒": 3538,
      "袖": 3539,
      "袛": 3540,
      "袜": 3541,
      "袢": 3542,
      "被": 3543,
      "袭": 3544,
      "袱": 3545,
      "裀": 3546,
      "裁": 3547,
      "裂": 3548,
      "装": 3549,
      "裆": 3550,
      "裔": 3551,
      "裘": 3552,
      "裙": 3553,
      "裟": 3554,
      "裤": 3555,
      "裩": 3556,
      "裰": 3557,
      "裳": 3558,
      "裸": 3559,
      "裹": 3560,
      "裾": 3561,
      "褊": 3562,
      "褐": 3563,
      "褒": 3564,
      "褛": 3565,
      "褡": 3566,
      "褥": 3567,
      "褪": 3568,
      "褭": 3569,
      "褴": 3570,
      "褶": 3571,
      "襕": 3572,
      "襟": 3573,
      "西": 3574,
      "要": 3575,
      "覆": 3576,
      "见": 3577,
      "观": 3578,
      "规": 3579,
      "觅": 3580,
      "视": 3581,
      "览": 3582,
      "觉": 3583,
      "觌": 3584,
      "觑": 3585,
      "角": 3586,
      "觔": 3587,
      "觜": 3588,
      "觞": 3589,
      "解": 3590,
      "觥": 3591,
      "触": 3592,
      "言": 3593,
      "詈": 3594,
      "誉": 3595,
      "誊": 3596,
      "誓": 3597,
      "警": 3598,
      "譬": 3599,
      "计": 3600,
      "订": 3601,
      "认": 3602,
      "讨": 3603,
      "让": 3604,
      "讪": 3605,
      "讫": 3606,
      "训": 3607,
      "议": 3608,
      "讯": 3609,
      "记": 3610,
      "讲": 3611,
      "讳": 3612,
      "讴": 3613,
      "讵": 3614,
      "讶": 3615,
      "许": 3616,
      "讹": 3617,
      "论": 3618,
      "讼": 3619,
      "讽": 3620,
      "设": 3621,
      "访": 3622,
      "诀": 3623,
      "证": 3624,
      "诂": 3625,
      "诃": 3626,
      "评": 3627,
      "识": 3628,
      "诈": 3629,
      "诉": 3630,
      "诊": 3631,
      "词": 3632,
      "诏": 3633,
      "译": 3634,
      "诓": 3635,
      "试": 3636,
      "诗": 3637,
      "诘": 3638,
      "诚": 3639,
      "诛": 3640,
      "话": 3641,
      "诞": 3642,
      "诡": 3643,
      "询": 3644,
      "诣": 3645,
      "该": 3646,
      "详": 3647,
      "诨": 3648,
      "诬": 3649,
      "语": 3650,
      "误": 3651,
      "诰": 3652,
      "诱": 3653,
      "诲": 3654,
      "诳": 3655,
      "说": 3656,
      "诵": 3657,
      "请": 3658,
      "诸": 3659,
      "诺": 3660,
      "读": 3661,
      "诽": 3662,
      "课": 3663,
      "谁": 3664,
      "调": 3665,
      "谄": 3666,
      "谅": 3667,
      "谆": 3668,
      "谈": 3669,
      "谊": 3670,
      "谋": 3671,
      "谎": 3672,
      "谏": 3673,
      "谐": 3674,
      "谒": 3675,
      "谓": 3676,
      "谕": 3677,
      "谗": 3678,
      "谙": 3679,
      "谛": 3680,
      "谜": 3681,
      "谢": 3682,
      "谣": 3683,
      "谤": 3684,
      "谦": 3685,
      "谨": 3686,
      "谩": 3687,
      "谪": 3688,
      "谬": 3689,
      "谯": 3690,
      "谱": 3691,
      "谲": 3692,
      "谴": 3693,
      "谵": 3694,
      "谶": 3695,
      "谷": 3696,
      "豁": 3697,
      "豆": 3698,
      "豇": 3699,
      "豕": 3700,
      "豚": 3701,
      "豝": 3702,
      "象": 3703,
      "豪": 3704,
      "豸": 3705,
      "豹": 3706,
      "豺": 3707,
      "貂": 3708,
      "貅": 3709,
      "貉": 3710,
      "貌": 3711,
      "貔": 3712,
      "贝": 3713,
      "贞": 3714,
      "负": 3715,
      "贡": 3716,
      "财": 3717,
      "责": 3718,
      "贤": 3719,
      "败": 3720,
      "货": 3721,
      "质": 3722,
      "贩": 3723,
      "贪": 3724,
      "贫": 3725,
      "贬": 3726,
      "贮": 3727,
      "贯": 3728,
      "贱": 3729,
      "贴": 3730,
      "贵": 3731,
      "费": 3732,
      "贺": 3733,
      "贻": 3734,
      "贼": 3735,
      "贽": 3736,
      "贾": 3737,
      "贿": 3738,
      "赁": 3739,
      "赃": 3740,
      "资": 3741,
      "赆": 3742,
      "赈": 3743,
      "赊": 3744,
      "赋": 3745,
      "赌": 3746,
      "赍": 3747,
      "赎": 3748,
      "赏": 3749,
      "赐": 3750,
      "赑": 3751,
      "赓": 3752,
      "赔": 3753,
      "赖": 3754,
      "赘": 3755,
      "赚": 3756,
      "赛": 3757,
      "赜": 3758,
      "赞": 3759,
      "赠": 3760,
      "赡": 3761,
      "赢": 3762,
      "赣": 3763,
      "赤": 3764,
      "赥": 3765,
      "赦": 3766,
      "赫": 3767,
      "赭": 3768,
      "走": 3769,
      "赴": 3770,
      "赵": 3771,
      "赶": 3772,
      "起": 3773,
      "趁": 3774,
      "趄": 3775,
      "越": 3776,
      "趋": 3777,
      "趟": 3778,
      "趣": 3779,
      "趫": 3780,
      "趱": 3781,
      "足": 3782,
      "趷": 3783,
      "趾": 3784,
      "跃": 3785,
      "跄": 3786,
      "跋": 3787,
      "跌": 3788,
      "跎": 3789,
      "跑": 3790,
      "跘": 3791,
      "距": 3792,
      "跟": 3793,
      "跣": 3794,
      "跤": 3795,
      "跨": 3796,
      "跪": 3797,
      "跬": 3798,
      "路": 3799,
      "跳": 3800,
      "践": 3801,
      "跷": 3802,
      "跼": 3803,
      "踉": 3804,
      "踊": 3805,
      "踌": 3806,
      "踏": 3807,
      "踘": 3808,
      "踞": 3809,
      "踡": 3810,
      "踢": 3811,
      "踪": 3812,
      "踵": 3813,
      "蹄": 3814,
      "蹅": 3815,
      "蹈": 3816,
      "蹉": 3817,
      "蹊": 3818,
      "蹋": 3819,
      "蹍": 3820,
      "蹑": 3821,
      "蹙": 3822,
      "蹡": 3823,
      "蹬": 3824,
      "蹭": 3825,
      "蹱": 3826,
      "蹲": 3827,
      "蹴": 3828,
      "蹶": 3829,
      "蹻": 3830,
      "蹼": 3831,
      "躁": 3832,
      "躇": 3833,
      "躘": 3834,
      "躧": 3835,
      "身": 3836,
      "躬": 3837,
      "躯": 3838,
      "躲": 3839,
      "軃": 3840,
      "车": 3841,
      "轧": 3842,
      "轩": 3843,
      "转": 3844,
      "轮": 3845,
      "软": 3846,
      "轰": 3847,
      "轳": 3848,
      "轴": 3849,
      "轸": 3850,
      "轻": 3851,
      "载": 3852,
      "轿": 3853,
      "辂": 3854,
      "较": 3855,
      "辄": 3856,
      "辅": 3857,
      "辆": 3858,
      "辇": 3859,
      "辈": 3860,
      "辉": 3861,
      "辋": 3862,
      "辍": 3863,
      "辏": 3864,
      "辐": 3865,
      "输": 3866,
      "辔": 3867,
      "辕": 3868,
      "辖": 3869,
      "辘": 3870,
      "辛": 3871,
      "辜": 3872,
      "辞": 3873,
      "辟": 3874,
      "辣": 3875,
      "辨": 3876,
      "辩": 3877,
      "辰": 3878,
      "辱": 3879,
      "边": 3880,
      "达": 3881,
      "辿": 3882,
      "迁": 3883,
      "迅": 3884,
      "过": 3885,
      "迈": 3886,
      "迍": 3887,
      "迎": 3888,
      "运": 3889,
      "近": 3890,
      "迓": 3891,
      "返": 3892,
      "还": 3893,
      "这": 3894,
      "进": 3895,
      "远": 3896,
      "违": 3897,
      "连": 3898,
      "迟": 3899,
      "迢": 3900,
      "迤": 3901,
      "迥": 3902,
      "迦": 3903,
      "迩": 3904,
      "迫": 3905,
      "迭": 3906,
      "述": 3907,
      "迳": 3908,
      "迷": 3909,
      "迸": 3910,
      "迹": 3911,
      "追": 3912,
      "退": 3913,
      "送": 3914,
      "适": 3915,
      "逃": 3916,
      "逅": 3917,
      "逆": 3918,
      "选": 3919,
      "逊": 3920,
      "逍": 3921,
      "透": 3922,
      "逐": 3923,
      "递": 3924,
      "途": 3925,
      "逗": 3926,
      "通": 3927,
      "逝": 3928,
      "逞": 3929,
      "造": 3930,
      "逢": 3931,
      "逭": 3932,
      "逶": 3933,
      "逸": 3934,
      "逻": 3935,
      "逼": 3936,
      "逾": 3937,
      "遁": 3938,
      "遂": 3939,
      "遇": 3940,
      "遍": 3941,
      "遏": 3942,
      "遐": 3943,
      "道": 3944,
      "遗": 3945,
      "遣": 3946,
      "遥": 3947,
      "遨": 3948,
      "遭": 3949,
      "遮": 3950,
      "遵": 3951,
      "遽": 3952,
      "避": 3953,
      "邀": 3954,
      "邂": 3955,
      "邃": 3956,
      "邅": 3957,
      "邑": 3958,
      "邓": 3959,
      "那": 3960,
      "邦": 3961,
      "邪": 3962,
      "邱": 3963,
      "邵": 3964,
      "邷": 3965,
      "邸": 3966,
      "邻": 3967,
      "郁": 3968,
      "郊": 3969,
      "郎": 3970,
      "郑": 3971,
      "郡": 3972,
      "部": 3973,
      "郭": 3974,
      "郸": 3975,
      "都": 3976,
      "鄂": 3977,
      "鄙": 3978,
      "鄱": 3979,
      "酆": 3980,
      "酉": 3981,
      "酊": 3982,
      "酌": 3983,
      "配": 3984,
      "酒": 3985,
      "酕": 3986,
      "酗": 3987,
      "酝": 3988,
      "酡": 3989,
      "酣": 3990,
      "酥": 3991,
      "酩": 3992,
      "酪": 3993,
      "酬": 3994,
      "酱": 3995,
      "酲": 3996,
      "酷": 3997,
      "酸": 3998,
      "酾": 3999,
      "酿": 4000,
      "醄": 4001,
      "醉": 4002,
      "醋": 4003,
      "醍": 4004,
      "醐": 4005,
      "醒": 4006,
      "醪": 4007,
      "醮": 4008,
      "醴": 4009,
      "醺": 4010,
      "采": 4011,
      "释": 4012,
      "里": 4013,
      "重": 4014,
      "野": 4015,
      "量": 4016,
      "金": 4017,
      "鉴": 4018,
      "銮": 4019,
      "鋘": 4020,
      "鍪": 4021,
      "鏖": 4022,
      "鐄": 4023,
      "鐏": 4024,
      "鑨": 4025,
      "针": 4026,
      "钉": 4027,
      "钏": 4028,
      "钓": 4029,
      "钗": 4030,
      "钝": 4031,
      "钞": 4032,
      "钟": 4033,
      "钢": 4034,
      "钤": 4035,
      "钥": 4036,
      "钦": 4037,
      "钧": 4038,
      "钩": 4039,
      "钮": 4040,
      "钯": 4041,
      "钱": 4042,
      "钳": 4043,
      "钵": 4044,
      "钹": 4045,
      "钺": 4046,
      "钻": 4047,
      "钿": 4048,
      "铁": 4049,
      "铃": 4050,
      "铄": 4051,
      "铅": 4052,
      "铇": 4053,
      "铊": 4054,
      "铎": 4055,
      "铙": 4056,
      "铛": 4057,
      "铜": 4058,
      "铠": 4059,
      "铣": 4060,
      "铩": 4061,
      "铭": 4062,
      "铲": 4063,
      "铳": 4064,
      "银": 4065,
      "铸": 4066,
      "铺": 4067,
      "链": 4068,
      "铿": 4069,
      "销": 4070,
      "锁": 4071,
      "锄": 4072,
      "锅": 4073,
      "锈": 4074,
      "锉": 4075,
      "锋": 4076,
      "锐": 4077,
      "错": 4078,
      "锚": 4079,
      "锟": 4080,
      "锡": 4081,
      "锢": 4082,
      "锣": 4083,
      "锤": 4084,
      "锥": 4085,
      "锦": 4086,
      "锭": 4087,
      "键": 4088,
      "锯": 4089,
      "锺": 4090,
      "锻": 4091,
      "镂": 4092,
      "镇": 4093,
      "镌": 4094,
      "镔": 4095,
      "镕": 4096,
      "镜": 4097,
      "镟": 4098,
      "镫": 4099,
      "镯": 4100,
      "镰": 4101,
      "镵": 4102,
      "镶": 4103,
      "长": 4104,
      "门": 4105,
      "闪": 4106,
      "闭": 4107,
      "问": 4108,
      "闯": 4109,
      "闰": 4110,
      "闱": 4111,
      "闲": 4112,
      "间": 4113,
      "闷": 4114,
      "闸": 4115,
      "闹": 4116,
      "闺": 4117,
      "闻": 4118,
      "闽": 4119,
      "闾": 4120,
      "阁": 4121,
      "阃": 4122,
      "阅": 4123,
      "阆": 4124,
      "阇": 4125,
      "阊": 4126,
      "阎": 4127,
      "阐": 4128,
      "阑": 4129,
      "阒": 4130,
      "阔": 4131,
      "阕": 4132,
      "阖": 4133,
      "阙": 4134,
      "阜": 4135,
      "队": 4136,
      "阡": 4137,
      "阮": 4138,
      "防": 4139,
      "阳": 4140,
      "阴": 4141,
      "阵": 4142,
      "阶": 4143,
      "阻": 4144,
      "阿": 4145,
      "陀": 4146,
      "附": 4147,
      "际": 4148,
      "陈": 4149,
      "陋": 4150,
      "陌": 4151,
      "降": 4152,
      "限": 4153,
      "陕": 4154,
      "陛": 4155,
      "陡": 4156,
      "院": 4157,
      "除": 4158,
      "险": 4159,
      "陪": 4160,
      "陲": 4161,
      "陵": 4162,
      "陶": 4163,
      "陷": 4164,
      "隅": 4165,
      "隆": 4166,
      "隋": 4167,
      "隍": 4168,
      "随": 4169,
      "隐": 4170,
      "隔": 4171,
      "隘": 4172,
      "隙": 4173,
      "障": 4174,
      "隶": 4175,
      "难": 4176,
      "雀": 4177,
      "雁": 4178,
      "雄": 4179,
      "雅": 4180,
      "集": 4181,
      "雇": 4182,
      "雉": 4183,
      "雌": 4184,
      "雍": 4185,
      "雏": 4186,
      "雕": 4187,
      "雨": 4188,
      "雪": 4189,
      "雳": 4190,
      "零": 4191,
      "雷": 4192,
      "雹": 4193,
      "雾": 4194,
      "需": 4195,
      "霁": 4196,
      "霄": 4197,
      "霆": 4198,
      "震": 4199,
      "霉": 4200,
      "霍": 4201,
      "霎": 4202,
      "霏": 4203,
      "霓": 4204,
      "霖": 4205,
      "霜": 4206,
      "霞": 4207,
      "霭": 4208,
      "露": 4209,
      "霸": 4210,
      "霹": 4211,
      "霾": 4212,
      "青": 4213,
      "靖": 4214,
      "静": 4215,
      "靛": 4216,
      "非": 4217,
      "靠": 4218,
      "靡": 4219,
      "面": 4220,
      "靦": 4221,
      "靴": 4222,
      "靸": 4223,
      "靼": 4224,
      "靿": 4225,
      "鞄": 4226,
      "鞋": 4227,
      "鞍": 4228,
      "鞑": 4229,
      "鞒": 4230,
      "鞘": 4231,
      "鞠": 4232,
      "鞦": 4233,
      "鞭": 4234,
      "韂": 4235,
      "韩": 4236,
      "韬": 4237,
      "韭": 4238,
      "音": 4239,
      "韵": 4240,
      "韶": 4241,
      "顶": 4242,
      "顷": 4243,
      "项": 4244,
      "顺": 4245,
      "须": 4246,
      "顽": 4247,
      "顾": 4248,
      "顿": 4249,
      "颁": 4250,
      "颂": 4251,
      "预": 4252,
      "颅": 4253,
      "领": 4254,
      "颇": 4255,
      "颈": 4256,
      "颉": 4257,
      "颏": 4258,
      "颐": 4259,
      "频": 4260,
      "颓": 4261,
      "颔": 4262,
      "颖": 4263,
      "颗": 4264,
      "题": 4265,
      "颜": 4266,
      "额": 4267,
      "颠": 4268,
      "颤": 4269,
      "颧": 4270,
      "风": 4271,
      "飒": 4272,
      "飕": 4273,
      "飖": 4274,
      "飘": 4275,
      "飞": 4276,
      "食": 4277,
      "餂": 4278,
      "餐": 4279,
      "餪": 4280,
      "饥": 4281,
      "饧": 4282,
      "饫": 4283,
      "饭": 4284,
      "饮": 4285,
      "饯": 4286,
      "饰": 4287,
      "饱": 4288,
      "饲": 4289,
      "饳": 4290,
      "饵": 4291,
      "饶": 4292,
      "饷": 4293,
      "饼": 4294,
      "饿": 4295,
      "馀": 4296,
      "馁": 4297,
      "馅": 4298,
      "馆": 4299,
      "馉": 4300,
      "馋": 4301,
      "馍": 4302,
      "馐": 4303,
      "馑": 4304,
      "馒": 4305,
      "馔": 4306,
      "馕": 4307,
      "香": 4308,
      "馥": 4309,
      "馨": 4310,
      "駃": 4311,
      "駔": 4312,
      "駬": 4313,
      "駼": 4314,
      "騂": 4315,
      "騄": 4316,
      "騊": 4317,
      "騔": 4318,
      "騕": 4319,
      "騠": 4320,
      "马": 4321,
      "驮": 4322,
      "驯": 4323,
      "驰": 4324,
      "驱": 4325,
      "驴": 4326,
      "驷": 4327,
      "驸": 4328,
      "驹": 4329,
      "驻": 4330,
      "驼": 4331,
      "驽": 4332,
      "驾": 4333,
      "驿": 4334,
      "骁": 4335,
      "骂": 4336,
      "骄": 4337,
      "骅": 4338,
      "骆": 4339,
      "骇": 4340,
      "骈": 4341,
      "骊": 4342,
      "骋": 4343,
      "验": 4344,
      "骏": 4345,
      "骐": 4346,
      "骑": 4347,
      "骕": 4348,
      "骗": 4349,
      "骘": 4350,
      "骝": 4351,
      "骞": 4352,
      "骠": 4353,
      "骡": 4354,
      "骢": 4355,
      "骤": 4356,
      "骥": 4357,
      "骦": 4358,
      "骨": 4359,
      "骷": 4360,
      "骸": 4361,
      "髅": 4362,
      "髓": 4363,
      "高": 4364,
      "髭": 4365,
      "髯": 4366,
      "髻": 4367,
      "髽": 4368,
      "鬃": 4369,
      "鬅": 4370,
      "鬏": 4371,
      "鬓": 4372,
      "鬘": 4373,
      "鬟": 4374,
      "鬣": 4375,
      "鬼": 4376,
      "魀": 4377,
      "魁": 4378,
      "魂": 4379,
      "魄": 4380,
      "魅": 4381,
      "魇": 4382,
      "魈": 4383,
      "魉": 4384,
      "魍": 4385,
      "魏": 4386,
      "魑": 4387,
      "魔": 4388,
      "鮆": 4389,
      "鯾": 4390,
      "鱑": 4391,
      "鱨": 4392,
      "鱼": 4393,
      "鲁": 4394,
      "鲂": 4395,
      "鲅": 4396,
      "鲆": 4397,
      "鲇": 4398,
      "鲈": 4399,
      "鲊": 4400,
      "鲌": 4401,
      "鲍": 4402,
      "鲙": 4403,
      "鲜": 4404,
      "鲤": 4405,
      "鲥": 4406,
      "鲨": 4407,
      "鲫": 4408,
      "鲭": 4409,
      "鲮": 4410,
      "鲲": 4411,
      "鲳": 4412,
      "鲸": 4413,
      "鲻": 4414,
      "鳅": 4415,
      "鳌": 4416,
      "鳏": 4417,
      "鳖": 4418,
      "鳜": 4419,
      "鳝": 4420,
      "鳞": 4421,
      "鳠": 4422,
      "鳷": 4423,
      "鴏": 4424,
      "鷃": 4425,
      "鷫": 4426,
      "鸟": 4427,
      "鸡": 4428,
      "鸣": 4429,
      "鸥": 4430,
      "鸦": 4431,
      "鸨": 4432,
      "鸪": 4433,
      "鸬": 4434,
      "鸭": 4435,
      "鸯": 4436,
      "鸳": 4437,
      "鸶": 4438,
      "鸽": 4439,
      "鸾": 4440,
      "鸿": 4441,
      "鹁": 4442,
      "鹂": 4443,
      "鹃": 4444,
      "鹄": 4445,
      "鹅": 4446,
      "鹉": 4447,
      "鹊": 4448,
      "鹌": 4449,
      "鹏": 4450,
      "鹐": 4451,
      "鹑": 4452,
      "鹗": 4453,
      "鹚": 4454,
      "鹜": 4455,
      "鹞": 4456,
      "鹤": 4457,
      "鹥": 4458,
      "鹦": 4459,
      "鹧": 4460,
      "鹫": 4461,
      "鹭": 4462,
      "鹰": 4463,
      "鹳": 4464,
      "鹿": 4465,
      "麂": 4466,
      "麈": 4467,
      "麋": 4468,
      "麒": 4469,
      "麓": 4470,
      "麖": 4471,
      "麝": 4472,
      "麟": 4473,
      "麦": 4474,
      "麻": 4475,
      "麾": 4476,
      "黄": 4477,
      "黍": 4478,
      "黎": 4479,
      "黑": 4480,
      "默": 4481,
      "黛": 4482,
      "黠": 4483,
      "黯": 4484,
      "鼋": 4485,
      "鼍": 4486,
      "鼎": 4487,
      "鼓": 4488,
      "鼠": 4489,
      "鼻": 4490,
      "鼾": 4491,
      "齁": 4492,
      "齆": 4493,
      "齐": 4494,
      "齑": 4495,
      "齿": 4496,
      "龁": 4497,
      "龄": 4498,
      "龈": 4499,
      "龙": 4500,
      "龚": 4501,
      "龛": 4502,
      "龟": 4503,
      "": 4504,
      "": 4505,
      "": 4506,
      "": 4507,
      ":“": 4508,
      "。”": 4509,
      "行者": 4510,
      "?”": 4511,
      "!”": 4512,
      "八戒": 4513,
      "师父": 4514,
      "行者道": 4515,
      "三藏": 4516,
      "一个": 4517,
      "大圣": 4518,
      "唐僧": 4519,
      "沙僧": 4520,
      "和尚": 4521,
      "菩萨": 4522,
      "那里": 4523,
      "怎么": 4524,
      "笑道": 4525,
      "不知": 4526,
      "我们": 4527,
      "长老": 4528,
      "妖精": 4529,
      "老孙": 4530,
      "两个": 4531,
      "八戒道": 4532,
      "甚么": 4533,
      "不是": 4534,
      "悟空": 4535,
      "见那": 4536,
      "国王": 4537,
      "三藏道": 4538,
      "那怪": 4539,
      "徒弟": 4540,
      "了一": 4541,
      "呆子": 4542,
      "闻言": 4543,
      "与他": 4544,
      "大王": 4545,
      "原来": 4546,
      "不得": 4547,
      "不敢": 4548,
      "如何": 4549,
      "不曾": 4550,
      "这个": 4551,
      "是个": 4552,
      "见了": 4553,
      "叫道": 4554,
      "小妖": 4555,
      "正是": 4556,
      "只是": 4557,
      "出来": 4558,
      "等我": 4559,
      "与你": 4560,
      "真个": 4561,
      "有一": 4562,
      "一声": 4563,
      "三个": 4564,
      "这里": 4565,
      "兄弟": 4566,
      "这等": 4567,
      "宝贝": 4568,
      "今日": 4569,
      "我等": 4570,
      "听得": 4571,
      "行者笑道": 4572,
      "是我": 4573,
      "那个": 4574,
      "也不": 4575,
      "上前": 4576,
      "在此": 4577,
      "来了": 4578,
      "取经": 4579,
      "却说": 4580,
      "你看": 4581,
      "如今": 4582,
      "去了": 4583,
      "这一": 4584,
      "只见": 4585,
      "这般": 4586,
      "吃了": 4587,
      "怎的": 4588,
      "只见那": 4589,
      "孙行者": 4590,
      "起来": 4591,
      "西天": 4592,
      "铁棒": 4593,
      "那老": 4594,
      "与我": 4595,
      "不住": 4596,
      "认得": 4597,
      "你这": 4598,
      "天王": 4599,
      "不要": 4600,
      "来的": 4601,
      "龙王": 4602,
      "妖怪": 4603,
      "就是": 4604,
      "师徒": 4605,
      "东土": 4606,
      "太子": 4607,
      "果然": 4608,
      "见他": 4609,
      "如来": 4610,
      "我师父": 4611,
      "不能": 4612,
      "进去": 4613,
      "性命": 4614,
      "有些": 4615,
      "他的": 4616,
      "孙大圣": 4617,
      "我的": 4618,
      "老爷": 4619,
      "他一": 4620,
      "观看": 4621,
      "公主": 4622,
      "神通": 4623,
      "那呆子": 4624,
      "沙僧道": 4625,
      "不见": 4626,
      "人家": 4627,
      "妖魔": 4628,
      "变作": 4629,
      "玉帝": 4630,
      "你们": 4631,
      "弟子": 4632,
      "有个": 4633,
      "猴王": 4634,
      "得那": 4635,
      "哥哥": 4636,
      "教他": 4637,
      "土地": 4638,
      "在那": 4639,
      "问道": 4640,
      "道士": 4641,
      "师兄": 4642,
      "门外": 4643,
      "一齐": 4644,
      "欢喜": 4645,
      "乃是": 4646,
      "妖王": 4647,
      "都是": 4648,
      "在那里": 4649,
      "贫僧": 4650,
      "云头": 4651,
      "行李": 4652,
      "太宗": 4653,
      "陛下": 4654,
      "一个个": 4655,
      "怎生": 4656,
      "圣僧": 4657,
      "多少": 4658,
      "金箍": 4659,
      "闻得": 4660,
      "空中": 4661,
      "走了": 4662,
      "那妖精": 4663,
      "做个": 4664,
      "爷爷": 4665,
      "众僧": 4666,
      "兵器": 4667,
      "二十": 4668,
      "来也": 4669,
      "模样": 4670,
      "不好": 4671,
      "不题": 4672,
      "几个": 4673,
      "心中": 4674,
      "想是": 4675,
      "的是": 4676,
      "老者": 4677,
      "袈裟": 4678,
      "如此": 4679,
      "十分": 4680,
      "叫做": 4681,
      "变化": 4682,
      "你怎么": 4683,
      "多时": 4684,
      "却又": 4685,
      "只得": 4686,
      "看见": 4687,
      "到此": 4688,
      "身一": 4689,
      "那些": 4690,
      "你是": 4691,
      "出去": 4692,
      "魔王": 4693,
      "我也": 4694,
      "他就": 4695,
      "手段": 4696,
      "看看": 4697,
      "近前": 4698,
      "大仙": 4699,
      "里面": 4700,
      "了他": 4701,
      "娘娘": 4702,
      "一条": 4703,
      "不可": 4704,
      "小的": 4705,
      "收了": 4706,
      "到了": 4707,
      "三十": 4708,
      "衣服": 4709,
      "骂道": 4710,
      "些儿": 4711,
      "女子": 4712,
      "一般": 4713,
      "西方": 4714,
      "吩咐": 4715,
      "大唐": 4716,
      "打死": 4717,
      "齐天": 4718,
      "你去": 4719,
      "猪八戒": 4720,
      "师徒们": 4721,
      "仔细": 4722,
      "孙悟空": 4723,
      "菩萨道": 4724,
      "他两个": 4725,
      "你的": 4726,
      "去也": 4727,
      "叫声": 4728,
      "左右": 4729,
      "金箍棒": 4730,
      "了我": 4731,
      "喜道": 4732,
      "喝道": 4733,
      "唐僧道": 4734,
      "原来是": 4735,
      "大小": 4736,
      "所以": 4737,
      "把那": 4738,
      "老魔": 4739,
      "只听得": 4740,
      "听见": 4741,
      "奈何": 4742,
      "晓得": 4743,
      "言语": 4744,
      "去罢": 4745,
      "四众": 4746,
      "天宫": 4747,
      "我这": 4748,
      "一把": 4749,
      "观音": 4750,
      "安排": 4751,
      "被他": 4752,
      "关文": 4753,
      "叩头": 4754,
      "好大圣": 4755,
      "故此": 4756,
      "方才": 4757,
      "洞里": 4758,
      "看时": 4759,
      "真个是": 4760,
      "去来": 4761,
      "拜佛": 4762,
      "有何": 4763,
      "钉钯": 4764,
      "三人": 4765,
      "五百": 4766,
      "变做": 4767,
      "我是": 4768,
      "拿住": 4769,
      "高叫道": 4770,
      "上有": 4771,
      "有甚": 4772,
      "毫毛": 4773,
      "一座": 4774,
      "取出": 4775,
      "而去": 4776,
      "一时": 4777,
      "也罢": 4778,
      "却才": 4779,
      "却不": 4780,
      "听说": 4781,
      "当时": 4782,
      "若是": 4783,
      "走路": 4784,
      "礼道": 4785,
      "那国王": 4786,
      "你看他": 4787,
      "那长老": 4788,
      "不尽": 4789,
      "且听": 4790,
      "兢兢": 4791,
      "出门": 4792,
      "回头": 4793,
      "妖邪": 4794,
      "战兢兢": 4795,
      "却是": 4796,
      "明日": 4797,
      "许多": 4798,
      "齐天大圣": 4799,
      "二人": 4800,
      "分解": 4801,
      "抬头": 4802,
      "来我": 4803,
      "此时": 4804,
      "汝等": 4805,
      "下回": 4806,
      "之事": 4807,
      "孩儿": 4808,
      "扯住": 4809,
      "毕竟": 4810,
      "递与": 4811,
      "且听下回": 4812,
      "且听下回分解": 4813,
      "也是": 4814,
      "你且": 4815,
      "径至": 4816,
      "老君": 4817,
      "降妖": 4818,
      "三年": 4819,
      "在地": 4820,
      "筋斗": 4821,
      "一只": 4822,
      "之下": 4823,
      "回来": 4824,
      "报道": 4825,
      "下来": 4826,
      "口里": 4827,
      "忍不住": 4828,
      "把他": 4829,
      "特来": 4830,
      "还有": 4831,
      "人道": 4832,
      "唐王": 4833,
      "慌得": 4834,
      "拿了": 4835,
      "一日": 4836,
      "放心": 4837,
      "沙和尚": 4838,
      "行者闻言": 4839,
      "却说那": 4840,
      "出家": 4841,
      "头上": 4842,
      "奏道": 4843,
      "收拾": 4844,
      "本事": 4845,
      "小的们": 4846,
      "中间": 4847,
      "坐在": 4848,
      "有人": 4849,
      "有一个": 4850,
      "皇帝": 4851,
      "往西天": 4852,
      "玄奘": 4853,
      "罢了": 4854,
      "葫芦": 4855,
      "言道": 4856,
      "门前": 4857,
      "哥啊": 4858,
      "四十": 4859,
      "是那": 4860,
      "老猪": 4861,
      "谢了": 4862,
      "他却": 4863,
      "又见": 4864,
      "壁厢": 4865,
      "未曾": 4866,
      "花果": 4867,
      "造化": 4868,
      "一口": 4869,
      "惊道": 4870,
      "不肯": 4871,
      "只管": 4872,
      "忽见": 4873,
      "路上": 4874,
      "那妖": 4875,
      "了你": 4876,
      "佛祖": 4877,
      "回去": 4878,
      "开门": 4879,
      "教我": 4880,
      "此言": 4881,
      "白马": 4882,
      "的和尚": 4883,
      "天地": 4884,
      "揭谛": 4885,
      "求经": 4886,
      "的一声": 4887,
      "问他": 4888,
      "东西": 4889,
      "多官": 4890,
      "老妖": 4891,
      "金光": 4892,
      "门里": 4893,
      "毕竟不知": 4894,
      "一则": 4895,
      "却也": 4896,
      "有三": 4897,
      "罗刹": 4898,
      "诗曰": 4899,
      "说话": 4900,
      "老者道": 4901,
      "受用": 4902,
      "猴子": 4903,
      "礼拜": 4904,
      "这大圣": 4905,
      "身一变": 4906,
      "不期": 4907,
      "不觉": 4908,
      "你不": 4909,
      "可怜": 4910,
      "御弟": 4911,
      "磕头": 4912,
      "赶上": 4913,
      "八戒笑道": 4914,
      "唤做": 4915,
      "唬得": 4916,
      "在这里": 4917,
      "怪物": 4918,
      "摇身一变": 4919,
      "现了": 4920,
      "着他": 4921,
      "还不": 4922,
      "雷音": 4923,
      "花果山": 4924,
      "南无": 4925,
      "把我": 4926,
      "文武": 4927,
      "用手": 4928,
      "着一个": 4929,
      "道人": 4930,
      "金星": 4931,
      "合掌": 4932,
      "咒语": 4933,
      "更无": 4934,
      "祖师": 4935,
      "说得": 4936,
      "十二": 4937,
      "厉声": 4938,
      "只因": 4939,
      "四个": 4940,
      "跪下": 4941,
      "进来": 4942,
      "一根": 4943,
      "下马": 4944,
      "丢了": 4945,
      "住了": 4946,
      "先生": 4947,
      "将来": 4948,
      "耍子": 4949,
      "身上": 4950,
      "八戒沙僧": 4951,
      "上来": 4952,
      "众神": 4953,
      "来此": 4954,
      "王子": 4955,
      "耳朵": 4956,
      "自家": 4957,
      "说是": 4958,
      "那怪道": 4959,
      "**": 4960,
      "他那": 4961,
      "何如": 4962,
      "儿子": 4963,
      "哪吒": 4964,
      "山中": 4965,
      "常言道": 4966,
      "慌了": 4967,
      "方便": 4968,
      "童子": 4969,
      "过了": 4970,
      "那和尚": 4971,
      "须臾": 4972,
      "下去": 4973,
      "之意": 4974,
      "何处": 4975,
      "唐朝": 4976,
      "得他": 4977,
      "殿上": 4978,
      "牛王": 4979,
      "直至": 4980,
      "精神": 4981,
      "还是": 4982,
      "那大圣": 4983,
      "悟空道": 4984,
      "东土大唐": 4985,
      "不过": 4986,
      "之间": 4987,
      "保护": 4988,
      "列位": 4989,
      "广大": 4990,
      "面前": 4991,
      "国王道": 4992,
      "为证": 4993,
      "便是": 4994,
      "即命": 4995,
      "又见那": 4996,
      "悟能": 4997,
      "灵山": 4998,
      "父母": 4999,
      "起身": 5000,
      "那里去": 5001,
      "之处": 5002,
      "前后": 5003,
      "就打": 5004,
      "我不": 5005,
      "本相": 5006,
      "的人": 5007,
      "三藏闻言": 5008,
      "传旨": 5009,
      "双手": 5010,
      "好歹": 5011,
      "待我": 5012,
      "悟净": 5013,
      "扇子": 5014,
      "无礼": 5015,
      "此间": 5016,
      "母亲": 5017,
      "法力": 5018,
      "看处": 5019,
      "这厮": 5020,
      "马匹": 5021,
      "那怪物": 5022,
      "不分": 5023,
      "你可": 5024,
      "在旁": 5025,
      "我一": 5026,
      "我这里": 5027,
      "教你": 5028,
      "无人": 5029,
      "昨日": 5030,
      "更不": 5031,
      "真是": 5032,
      "长生": 5033,
      "但见": 5034,
      "你这个": 5035,
      "慌得那": 5036,
      "是他": 5037,
      "等老孙": 5038,
      "长老道": 5039,
      "一阵": 5040,
      "下界": 5041,
      "二魔": 5042,
      "五十": 5043,
      "在山": 5044,
      "大路": 5045,
      "当年": 5046,
      "我去": 5047,
      "把个": 5048,
      "拿他": 5049,
      "父王": 5050,
      "群妖": 5051,
      "过去": 5052,
      "那厮": 5053,
      "金刚": 5054,
      "又有": 5055,
      "打杀": 5056,
      "知道": 5057,
      "走出": 5058,
      "闹天宫": 5059,
      "驸马": 5060,
      "出家人": 5061,
      "不了": 5062,
      "不同": 5063,
      "他也": 5064,
      "包袱": 5065,
      "千里": 5066,
      "南海": 5067,
      "在手": 5068,
      "怪道": 5069,
      "惊动": 5070,
      "我就": 5071,
      "没有": 5072,
      "相见": 5073,
      "祥云": 5074,
      "躬身": 5075,
      "那行者": 5076,
      "雷公": 5077,
      "上一": 5078,
      "下拜": 5079,
      "不动": 5080,
      "洞口": 5081,
      "神僧": 5082,
      "芭蕉": 5083,
      "转身": 5084,
      "这是": 5085,
      "不识": 5086,
      "不多时": 5087,
      "但见那": 5088,
      "你既": 5089,
      "你说": 5090,
      "使个": 5091,
      "后面": 5092,
      "婆婆": 5093,
      "开了": 5094,
      "法师": 5095,
      "不知是": 5096,
      "神通广大": 5097,
      "了一个": 5098,
      "四大": 5099,
      "烦恼": 5100,
      "祥光": 5101,
      "答应": 5102,
      "胡说": 5103,
      "长安": 5104,
      "马上": 5105,
      "了一遍": 5106,
      "一件": 5107,
      "一路": 5108,
      "他是": 5109,
      "你却": 5110,
      "倒换": 5111,
      "做了": 5112,
      "半空中": 5113,
      "本是": 5114,
      "老儿": 5115,
      "话说": 5116,
      "不必": 5117,
      "之言": 5118,
      "修行": 5119,
      "又来": 5120,
      "就要": 5121,
      "山门": 5122,
      "我来": 5123,
      "正果": 5124,
      "自在": 5125,
      "自有": 5126,
      "迎接": 5127,
      "这和尚": 5128,
      "魔头": 5129,
      "不然": 5130,
      "住道": 5131,
      "你还": 5132,
      "你那": 5133,
      "前进": 5134,
      "十八": 5135,
      "在空中": 5136,
      "城中": 5137,
      "大怒": 5138,
      "天下": 5139,
      "宝殿": 5140,
      "得了": 5141,
      "放下": 5142,
      "旨意": 5143,
      "有诗": 5144,
      "李天王": 5145,
      "着头": 5146,
      "跳出": 5147,
      "兄弟们": 5148,
      "那老者": 5149,
      "心中暗": 5150,
      "一一": 5151,
      "他又": 5152,
      "你两个": 5153,
      "坐下": 5154,
      "天尊": 5155,
      "寡人": 5156,
      "就有": 5157,
      "我说": 5158,
      "我与你": 5159,
      "木叉": 5160,
      "果是": 5161,
      "猢狲": 5162,
      "脱了": 5163,
      "蟠桃": 5164,
      "..": 5165,
      "七八": 5166,
      "上马": 5167,
      "他说": 5168,
      "保唐僧": 5169,
      "光蕊": 5170,
      "出了": 5171,
      "却怎么": 5172,
      "唬得那": 5173,
      "忽然": 5174,
      "按落": 5175,
      "方丈": 5176,
      "此处": 5177,
      "泪道": 5178,
      "灵霄": 5179,
      "着一": 5180,
      "神仙": 5181,
      "老师父": 5182,
      "莫想": 5183,
      "都在": 5184,
      "都来": 5185,
      "大圣道": 5186,
      "你看那": 5187,
      "厉声高叫道": 5188,
      "与沙僧": 5189,
      "到那": 5190,
      "去处": 5191,
      "只有": 5192,
      "唐三藏": 5193,
      "天门": 5194,
      "如意": 5195,
      "宝杖": 5196,
      "打他": 5197,
      "泼猴": 5198,
      "洞中": 5199,
      "皈依": 5200,
      "若不": 5201,
      "迎着": 5202,
      "这行者": 5203,
      "这一场": 5204,
      "有诗为证": 5205,
      "两边": 5206,
      "之人": 5207,
      "了去": 5208,
      "你也": 5209,
      "却不是": 5210,
      "呵呵": 5211,
      "和你": 5212,
      "外面": 5213,
      "大惊道": 5214,
      "干净": 5215,
      "弼马": 5216,
      "我老孙": 5217,
      "时辰": 5218,
      "有此": 5219,
      "果子": 5220,
      "箍儿": 5221,
      "罗汉": 5222,
      "路旁": 5223,
      "轻轻": 5224,
      "饶你": 5225,
      "驾云": 5226,
      "那里来的": 5227,
      "小妖道": 5228,
      "一顿": 5229,
      "为何": 5230,
      "二郎": 5231,
      "几时": 5232,
      "前面": 5233,
      "在他": 5234,
      "就走": 5235,
      "心惊": 5236,
      "想道": 5237,
      "慈悲": 5238,
      "打个": 5239,
      "既如此": 5240,
      "水帘": 5241,
      "看了": 5242,
      "着那": 5243,
      "谢恩": 5244,
      "过来": 5245,
      "师父你": 5246,
      "筋斗云": 5247,
      "三千": 5248,
      "不打": 5249,
      "且莫": 5250,
      "之时": 5251,
      "仙气": 5252,
      "公公": 5253,
      "判官": 5254,
      "又问": 5255,
      "天色": 5256,
      "好杀": 5257,
      "孽畜": 5258,
      "将身一": 5259,
      "幌一": 5260,
      "得个": 5261,
      "得我": 5262,
      "日月": 5263,
      "生得": 5264,
      "的道": 5265,
      "解了": 5266,
      "金睛": 5267,
      "金银": 5268,
      "正是那": 5269,
      "五百年": 5270,
      "万望": 5271,
      "乾坤": 5272,
      "嘴脸": 5273,
      "天晚": 5274,
      "将他": 5275,
      "我把": 5276,
      "是好": 5277,
      "有多少": 5278,
      "狂风": 5279,
      "相貌": 5280,
      "看他": 5281,
      "真经": 5282,
      "虽是": 5283,
      "还我": 5284,
      "那时": 5285,
      "阎王": 5286,
      "老魔道": 5287,
      "观音菩萨": 5288,
      "一定": 5289,
      "不来": 5290,
      "了个": 5291,
      "你师父": 5292,
      "动手": 5293,
      "半空": 5294,
      "只叫": 5295,
      "各各": 5296,
      "吆喝": 5297,
      "寺里": 5298,
      "将起来": 5299,
      "小龙": 5300,
      "小和尚": 5301,
      "怕他": 5302,
      "放在": 5303,
      "死了": 5304,
      "殿下": 5305,
      "火焰": 5306,
      "真君": 5307,
      "身法": 5308,
      "有一座": 5309,
      "欢喜道": 5310,
      "弼马温": 5311,
      "万岁": 5312,
      "不消": 5313,
      "不用": 5314,
      "与那": 5315,
      "主公": 5316,
      "了几": 5317,
      "他们": 5318,
      "僧人": 5319,
      "出城": 5320,
      "化斋": 5321,
      "变做个": 5322,
      "可以": 5323,
      "员外": 5324,
      "天兵": 5325,
      "小儿": 5326,
      "就不": 5327,
      "就如": 5328,
      "扑的": 5329,
      "明白": 5330,
      "星官": 5331,
      "樵子": 5332,
      "这些": 5333,
      "师父啊": 5334,
      "徒弟啊": 5335,
      "取经的": 5336,
      "与八戒": 5337,
      "众妖": 5338,
      "众官": 5339,
      "伯钦": 5340,
      "你要": 5341,
      "先锋": 5342,
      "其实": 5343,
      "利害": 5344,
      "原是": 5345,
      "又不": 5346,
      "天师": 5347,
      "天明": 5348,
      "女王": 5349,
      "将那": 5350,
      "慌忙": 5351,
      "是甚么": 5352,
      "棍子": 5353,
      "正在": 5354,
      "穿了": 5355,
      "老师": 5356,
      "腰间": 5357,
      "西去": 5358,
      "赌斗": 5359,
      "门上": 5360,
      "拜佛求经": 5361,
      "倒换关文": 5362,
      "三日": 5363,
      "下一": 5364,
      "且休": 5365,
      "丞相": 5366,
      "之上": 5367,
      "依言": 5368,
      "只怕": 5369,
      "在马上": 5370,
      "大哥": 5371,
      "快去": 5372,
      "怎敢": 5373,
      "抽身": 5374,
      "捻着": 5375,
      "朝上": 5376,
      "树上": 5377,
      "比丘": 5378,
      "清风": 5379,
      "说不了": 5380,
      "那女子": 5381,
      "不成": 5382,
      "个大": 5383,
      "之内": 5384,
      "之物": 5385,
      "十万": 5386,
      "千万": 5387,
      "半个": 5388,
      "向前": 5389,
      "大海": 5390,
      "天上": 5391,
      "女儿": 5392,
      "妇人": 5393,
      "山坡": 5394,
      "快早": 5395,
      "拿出": 5396,
      "挑着": 5397,
      "有几": 5398,
      "有甚么": 5399,
      "没奈何": 5400,
      "直裰": 5401,
      "第二": 5402,
      "贤弟": 5403,
      "趁早": 5404,
      "这场": 5405,
      "银子": 5406,
      "闻说": 5407,
      "随后": 5408,
      "一个是": 5409,
      "等我去": 5410,
      "众僧道": 5411,
      "有诗为证诗曰": 5412,
      "。’": 5413,
      "一场": 5414,
      "不瞒": 5415,
      "之恩": 5416,
      "人参": 5417,
      "伏侍": 5418,
      "何也": 5419,
      "你若": 5420,
      "六十": 5421,
      "古人": 5422,
      "叫他": 5423,
      "名字": 5424,
      "后边": 5425,
      "大闹天宫": 5426,
      "想必": 5427,
      "把唐僧": 5428,
      "斋僧": 5429,
      "正行": 5430,
      "父子": 5431,
      "还要": 5432,
      "那师父": 5433,
      "钵盂": 5434,
      "了一声": 5435,
      "取经人": 5436,
      "果然是": 5437,
      "不好了": 5438,
      "按落云头": 5439,
      "水帘洞": 5440,
      "一行": 5441,
      "下云头": 5442,
      "不在": 5443,
      "之中": 5444,
      "之后": 5445,
      "了三": 5446,
      "了这": 5447,
      "你来": 5448,
      "元帅": 5449,
      "光明": 5450,
      "原身": 5451,
      "口仙气": 5452,
      "只为": 5453,
      "天竺": 5454,
      "尽皆": 5455,
      "山神": 5456,
      "得胜": 5457,
      "放了": 5458,
      "来到": 5459,
      "点头": 5460,
      "牵马": 5461,
      "相迎": 5462,
      "着实": 5463,
      "离了": 5464,
      "端的": 5465,
      "肚里": 5466,
      "见我": 5467,
      "说我": 5468,
      "身子": 5469,
      "那八戒": 5470,
      "里边": 5471,
      "魏征": 5472,
      "行者又": 5473,
      "土地道": 5474,
      "祖师道": 5475,
      "二哥": 5476,
      "二百": 5477,
      "五行": 5478,
      "人间": 5479,
      "众猴": 5480,
      "因此": 5481,
      "国师": 5482,
      "好道": 5483,
      "害怕": 5484,
      "小姐": 5485,
      "山上": 5486,
      "师弟": 5487,
      "成精": 5488,
      "既是": 5489,
      "是何": 5490,
      "更时": 5491,
      "美猴王": 5492,
      "老怪": 5493,
      "说出": 5494,
      "远近": 5495,
      "连忙": 5496,
      "驿丞": 5497,
      "高山": 5498,
      "原来那": 5499,
      "大仙道": 5500,
      "叩头道": 5501,
      "幌一幌": 5502,
      ":‘": 5503,
      "一家": 5504,
      "上天": 5505,
      "上界": 5506,
      "不须": 5507,
      "与行者": 5508,
      "之外": 5509,
      "之心": 5510,
      "人等": 5511,
      "全无": 5512,
      "功曹": 5513,
      "千年": 5514,
      "即将": 5515,
      "口中": 5516,
      "只说": 5517,
      "圈子": 5518,
      "声音": 5519,
      "妈妈": 5520,
      "径入": 5521,
      "必定": 5522,
      "把这": 5523,
      "抖擞": 5524,
      "接了": 5525,
      "施主": 5526,
      "有理": 5527,
      "百十": 5528,
      "真言": 5529,
      "老道": 5530,
      "自然": 5531,
      "若要": 5532,
      "被行者": 5533,
      "跪下道": 5534,
      "”。": 5535,
      "上下": 5536,
      "不见了": 5537,
      "个个": 5538,
      "二来": 5539,
      "他去": 5540,
      "众人": 5541,
      "你道": 5542,
      "依然": 5543,
      "倒在地": 5544,
      "八百": 5545,
      "即忙": 5546,
      "却好": 5547,
      "君王": 5548,
      "听言": 5549,
      "呼呼": 5550,
      "在我": 5551,
      "外公": 5552,
      "将去": 5553,
      "得好": 5554,
      "忽听得": 5555,
      "急纵": 5556,
      "战战兢兢": 5557,
      "打破": 5558,
      "披挂": 5559,
      "拿来": 5560,
      "挑担": 5561,
      "是甚": 5562,
      "此山": 5563,
      "洞门": 5564,
      "真假": 5565,
      "祸事": 5566,
      "莫要": 5567,
      "被我": 5568,
      "郡侯": 5569,
      "阴司": 5570,
      "行者暗": 5571,
      "扯住道": 5572,
      "一只手": 5573,
      "一下": 5574,
      "一处": 5575,
      "七十": 5576,
      "上去": 5577,
      "下手": 5578,
      "不会": 5579,
      "且不": 5580,
      "之声": 5581,
      "之类": 5582,
      "之罪": 5583,
      "二则": 5584,
      "他来": 5585,
      "你就": 5586,
      "你不知": 5587,
      "几年": 5588,
      "前来": 5589,
      "却就": 5590,
      "可是": 5591,
      "吹口仙气": 5592,
      "夫妻": 5593,
      "安歇": 5594,
      "宝剑": 5595,
      "对众": 5596,
      "将进去": 5597,
      "我自": 5598,
      "找寻": 5599,
      "有四": 5600,
      "满心": 5601,
      "牛魔王": 5602,
      "王母": 5603,
      "皇后": 5604,
      "花园": 5605,
      "莫念": 5606,
      "话儿": 5607,
      "进城": 5608,
      "那妖王": 5609,
      "那魔王": 5610,
      "阴阳": 5611,
      "霎时": 5612,
      "须是": 5613,
      "不着": 5614,
      "不许": 5615,
      "也有": 5616,
      "关了": 5617,
      "再去": 5618,
      "即便": 5619,
      "即时": 5620,
      "启奏": 5621,
      "大家": 5622,
      "大喜道": 5623,
      "急急": 5624,
      "才是": 5625,
      "打开": 5626,
      "把门": 5627,
      "救我": 5628,
      "施礼道": 5629,
      "无事": 5630,
      "有五": 5631,
      "来请": 5632,
      "武艺": 5633,
      "莫说": 5634,
      "计较": 5635,
      "记得": 5636,
      "这一去": 5637,
      "一人": 5638,
      "一拥": 5639,
      "一壁厢": 5640,
      "万里": 5641,
      "三位": 5642,
      "上面": 5643,
      "不吃": 5644,
      "买卖": 5645,
      "但只是": 5646,
      "在里面": 5647,
      "头来": 5648,
      "好处": 5649,
      "弟兄": 5650,
      "往来": 5651,
      "我才": 5652,
      "手下": 5653,
      "明月": 5654,
      "欣然": 5655,
      "流沙": 5656,
      "滚滚": 5657,
      "着马": 5658,
      "粗细": 5659,
      "而来": 5660,
      "胜负": 5661,
      "虽然": 5662,
      "要吃": 5663,
      "诀念": 5664,
      "这妖精": 5665,
      "这正是": 5666,
      "遇着": 5667,
      "那两个": 5668,
      "部洲": 5669,
      "金銮": 5670,
      "问你": 5671,
      "顶上": 5672,
      "现了本相": 5673,
      "古人云": 5674,
      "一会": 5675,
      "一百": 5676,
      "一部": 5677,
      "上殿": 5678,
      "上西天": 5679,
      "也不曾": 5680,
      "了师父": 5681,
      "五方": 5682,
      "件宝贝": 5683,
      "何来": 5684,
      "你家": 5685,
      "入里面": 5686,
      "冲撞": 5687,
      "决不": 5688,
      "去得": 5689,
      "国丈": 5690,
      "大胆": 5691,
      "天河": 5692,
      "女婿": 5693,
      "容易": 5694,
      "将此": 5695,
      "必然": 5696,
      "悄悄": 5697,
      "朝天": 5698,
      "正说": 5699,
      "渐渐": 5700,
      "玉皇": 5701,
      "现出": 5702,
      "白玉": 5703,
      "相持": 5704,
      "看守": 5705,
      "知之": 5706,
      "纷纷": 5707,
      "脱身": 5708,
      "英雄": 5709,
      "说道": 5710,
      "诸天": 5711,
      "那一": 5712,
      "长嘴": 5713,
      "门来": 5714,
      "行者见了": 5715,
      "雷音寺": 5716,
      "箍儿咒": 5717,
      ";《": 5718,
      "不上": 5719,
      "不如": 5720,
      "与众": 5721,
      "人的": 5722,
      "低头": 5723,
      "供养": 5724,
      "便罢": 5725,
      "切莫": 5726,
      "前日": 5727,
      "只在": 5728,
      "君臣": 5729,
      "大众": 5730,
      "天蓬": 5731,
      "好人": 5732,
      "官员": 5733,
      "寿星": 5734,
      "将军": 5735,
      "径回": 5736,
      "我那": 5737,
      "手脚": 5738,
      "打得": 5739,
      "打扮": 5740,
      "救他": 5741,
      "早已": 5742,
      "是老孙": 5743,
      "昼夜": 5744,
      "望见": 5745,
      "然后": 5746,
      "猴头": 5747,
      "着我": 5748,
      "睡着": 5749,
      "睡觉": 5750,
      "神兵": 5751,
      "等候": 5752,
      "那一个": 5753,
      "锡杖": 5754,
      "长短": 5755,
      "黄金": 5756,
      "师父我": 5757,
      "怎么就": 5758,
      "龙王道": 5759,
      "妖王道": 5760,
      "二魔道": 5761,
      "一双": 5762,
      "不出": 5763,
      "不济": 5764,
      "与我们": 5765,
      "中有": 5766,
      "了他的": 5767,
      "他若": 5768,
      "你只": 5769,
      "到于": 5770,
      "又道": 5771,
      "叫一声": 5772,
      "城池": 5773,
      "处处": 5774,
      "女怪": 5775,
      "好生": 5776,
      "威风": 5777,
      "小神": 5778,
      "底下": 5779,
      "恕罪": 5780,
      "掣出": 5781,
      "断然": 5782,
      "无数": 5783,
      "晦气": 5784,
      "望空": 5785,
      "法儿": 5786,
      "洞府": 5787,
      "知是": 5788,
      "荡荡": 5789,
      "败阵": 5790,
      "过山": 5791,
      "还未": 5792,
      "这呆子": 5793,
      "那菩萨": 5794,
      "钦差": 5795,
      "那里走": 5796,
      "五百年前": 5797,
      "七个": 5798,
      "不去": 5799,
      "了些": 5800,
      "了多少": 5801,
      "交战": 5802,
      "今夜": 5803,
      "以为": 5804,
      "何在": 5805,
      "假若": 5806,
      "做甚": 5807,
      "净瓶": 5808,
      "分明": 5809,
      "却将": 5810,
      "只消": 5811,
      "可曾": 5812,
      "大徒弟": 5813,
      "奶奶": 5814,
      "好行者": 5815,
      "山凹": 5816,
      "开口": 5817,
      "当面": 5818,
      "径往": 5819,
      "怪我": 5820,
      "我有": 5821,
      "打听": 5822,
      "拜谢": 5823,
      "捆了": 5824,
      "方可": 5825,
      "无边": 5826,
      "是谁": 5827,
      "极乐": 5828,
      "欠身": 5829,
      "海龙王": 5830,
      "瑞气": 5831,
      "礼毕": 5832,
      "至此": 5833,
      "辛苦": 5834,
      "逃生": 5835,
      "金丹": 5836,
      "铃儿": 5837,
      "问讯": 5838,
      "鼻子": 5839,
      "行者在": 5840,
      "怎么说": 5841,
      "是我的": 5842,
      "摇身一变变作": 5843,
      "在手中": 5844,
      "人参果": 5845,
      "一直": 5846,
      "七十二": 5847,
      "下了": 5848,
      "不容": 5849,
      "也曾": 5850,
      "二位": 5851,
      "何方": 5852,
      "使铁棒": 5853,
      "停当": 5854,
      "僧道": 5855,
      "入朝": 5856,
      "六个": 5857,
      "前门": 5858,
      "十数": 5859,
      "又将": 5860,
      "可有": 5861,
      "后门": 5862,
      "城里": 5863,
      "大喜": 5864,
      "大惊": 5865,
      "夫人": 5866,
      "夯货": 5867,
      "左手": 5868,
      "必有": 5869,
      "打了": 5870,
      "执着": 5871,
      "报仇": 5872,
      "救得": 5873,
      "是一": 5874,
      "本象": 5875,
      "沙门": 5876,
      "火光": 5877,
      "狮子": 5878,
      "称谢": 5879,
      "翻身": 5880,
      "行囊": 5881,
      "要打": 5882,
      "让他": 5883,
      "起去": 5884,
      "遂此": 5885,
      "那魔": 5886,
      "那妖魔": 5887,
      "那道士": 5888,
      "问我": 5889,
      "阶前": 5890,
      "顷刻": 5891,
      "太子道": 5892,
      "出门来": 5893,
      "芭蕉扇": 5894,
      "也不知": 5895,
      "了我的": 5896,
      "今年": 5897,
      "他道": 5898,
      "但恐": 5899,
      "侍立": 5900,
      "借宿": 5901,
      "努力": 5902,
      "却似": 5903,
      "告道": 5904,
      "善哉": 5905,
      "在水": 5906,
      "大的": 5907,
      "天神": 5908,
      "官儿": 5909,
      "山头": 5910,
      "径到": 5911,
      "心猿": 5912,
      "怠慢": 5913,
      "我却": 5914,
      "手道": 5915,
      "拿着": 5916,
      "拿出来": 5917,
      "指道": 5918,
      "是你": 5919,
      "杀我也": 5920,
      "松林": 5921,
      "消息": 5922,
      "焚香": 5923,
      "猪羊": 5924,
      "盘缠": 5925,
      "老龙": 5926,
      "腾云": 5927,
      "莲花": 5928,
      "虎豹": 5929,
      "行凶": 5930,
      "请师父": 5931,
      "魂飞": 5932,
      "不要走": 5933,
      "往西天取经": 5934,
      "慌了道": 5935,
      "天竺国": 5936,
      "丈夫": 5937,
      "三百": 5938,
      "不放": 5939,
      "世间": 5940,
      "了性命": 5941,
      "云端": 5942,
      "他三人": 5943,
      "仙童": 5944,
      "内有": 5945,
      "勾当": 5946,
      "南天": 5947,
      "去寻": 5948,
      "去请": 5949,
      "变了": 5950,
      "只教": 5951,
      "只要": 5952,
      "名唤": 5953,
      "四时": 5954,
      "天将": 5955,
      "太师": 5956,
      "巡山": 5957,
      "往前": 5958,
      "径转": 5959,
      "惫懒": 5960,
      "成功": 5961,
      "我儿": 5962,
      "房里": 5963,
      "拽开": 5964,
      "散了": 5965,
      "无知": 5966,
      "更不曾": 5967,
      "楼台": 5968,
      "次日": 5969,
      "法名": 5970,
      "火眼": 5971,
      "猴儿": 5972,
      "的一": 5973,
      "的小妖": 5974,
      "禅堂": 5975,
      "胆战": 5976,
      "莫怕": 5977,
      "解数": 5978,
      "说甚么": 5979,
      "说了一遍": 5980,
      "那人道": 5981,
      "里远近": 5982,
      "怎么又": 5983,
      "那老魔": 5984,
      "认得是": 5985,
      "一千": 5986,
      "一棒": 5987,
      "三众": 5988,
      "下水": 5989,
      "不信": 5990,
      "不受": 5991,
      "不已": 5992,
      "不远": 5993,
      "两只": 5994,
      "两班": 5995,
      "之功": 5996,
      "他见": 5997,
      "仙女": 5998,
      "似这般": 5999,
      "但只": 6000,
      "你倒": 6001,
      "你又": 6002,
      "僧官": 6003,
      "儿女": 6004,
      "几日": 6005,
      "前去": 6006,
      "只闻得": 6007,
      "失色": 6008,
      "妇人道": 6009,
      "妖猴": 6010,
      "尊者": 6011,
      "尘埃": 6012,
      "就把": 6013,
      "层层": 6014,
      "展开": 6015,
      "强盗": 6016,
      "往那里去": 6017,
      "悚惧": 6018,
      "惠岸": 6019,
      "我家": 6020,
      "手中": 6021,
      "按下云头": 6022,
      "正欲": 6023,
      "正然": 6024,
      "此去": 6025,
      "此物": 6026,
      "河边": 6027,
      "洞外": 6028,
      "石崖": 6029,
      "筵宴": 6030,
      "莲台": 6031,
      "见佛": 6032,
      "观世": 6033,
      "解下": 6034,
      "让我": 6035,
      "适才": 6036,
      "钻风": 6037,
      "问曰": 6038,
      "魄散": 6039,
      "这等说": 6040,
      "上前道": 6041,
      "天王道": 6042,
      "在地下": 6043,
      "老妖道": 6044,
      "一见": 6045,
      "三五": 6046,
      "不怕": 6047,
      "不老": 6048,
      "中华": 6049,
      "临凡": 6050,
      "为人": 6051,
      "之法": 6052,
      "九霄": 6053,
      "人马": 6054,
      "他也不": 6055,
      "伽蓝": 6056,
      "何为": 6057,
      "便就": 6058,
      "六丁": 6059,
      "劈头": 6060,
      "即唤": 6061,
      "又要": 6062,
      "在这": 6063,
      "大开": 6064,
      "太上": 6065,
      "太保": 6066,
      "好了": 6067,
      "宫中": 6068,
      "已是": 6069,
      "往外": 6070,
      "念动": 6071,
      "思量": 6072,
      "急回头": 6073,
      "我若": 6074,
      "我和你": 6075,
      "斋饭": 6076,
      "无奈": 6077,
      "明早": 6078,
      "星君": 6079,
      "有的": 6080,
      "有几个": 6081,
      "来打": 6082,
      "止不住": 6083,
      "油锅": 6084,
      "满天": 6085,
      "火烧": 6086,
      "疼痛": 6087,
      "看着": 6088,
      "祭赛": 6089,
      "称为": 6090,
      "童儿": 6091,
      "答道": 6092,
      "自己": 6093,
      "自幼": 6094,
      "至今": 6095,
      "行至": 6096,
      "见一": 6097,
      "见说": 6098,
      "跳上": 6099,
      "身体": 6100,
      "身穿": 6101,
      "这样": 6102,
      "这一个": 6103,
      "那方": 6104,
      "那唐僧": 6105,
      "降龙": 6106,
      "院主": 6107,
      "风响": 6108,
      "黄袍": 6109,
      "齐整": 6110,
      "我们的": 6111,
      "正是正是": 6112,
      "认得我": 6113,
      "太宗道": 6114,
      "闻得此言": 6115,
      "二十八": 6116,
      "大怒道": 6117,
      "观世音": 6118,
      "一向": 6119,
      "一片": 6120,
      "上坐": 6121,
      "不当": 6122,
      "与唐僧": 6123,
      "与老孙": 6124,
      "也不敢": 6125,
      "云雾": 6126,
      "五千": 6127,
      "人也": 6128,
      "今已": 6129,
      "他那里": 6130,
      "他怎么": 6131,
      "他怎的": 6132,
      "佛衣": 6133,
      "倒也": 6134,
      "兄长": 6135,
      "写着": 6136,
      "分说": 6137,
      "别了": 6138,
      "又被": 6139,
      "喜欢": 6140,
      "嚷道": 6141,
      "声道": 6142,
      "声叫道": 6143,
      "夜叉": 6144,
      "头戴": 6145,
      "当中": 6146,
      "想着": 6147,
      "我且": 6148,
      "我弟子": 6149,
      "抬出": 6150,
      "既然": 6151,
      "早晚": 6152,
      "森罗": 6153,
      "死罪": 6154,
      "爬起来": 6155,
      "着手": 6156,
      "苍蝇": 6157,
      "起道": 6158,
      "送你": 6159,
      "那小妖": 6160,
      "阴风": 6161,
      "难行": 6162,
      "高徒": 6163,
      "鬼使": 6164,
      "怎么不": 6165,
      "如何且听下回分解": 6166,
      "公主道": 6167,
      "说得有理": 6168,
      "流沙河": 6169,
      "五方揭谛": 6170,
      "云端里": 6171,
      "一领": 6172,
      "丑陋": 6173,
      "世界": 6174,
      "之理": 6175,
      "了两": 6176,
      "人来": 6177,
      "今番": 6178,
      "众臣": 6179,
      "余里": 6180,
      "你莫": 6181,
      "便了": 6182,
      "六甲": 6183,
      "凡胎": 6184,
      "出头": 6185,
      "刘洪": 6186,
      "刺史": 6187,
      "前事": 6188,
      "前边": 6189,
      "半日": 6190,
      "又听得": 6191,
      "取了": 6192,
      "变得": 6193,
      "变的": 6194,
      "只恐": 6195,
      "启奏道": 6196,
      "器械": 6197,
      "在何处": 6198,
      "大会": 6199,
      "天晓": 6200,
      "奉上": 6201,
      "家火": 6202,
      "将我": 6203,
      "开路": 6204,
      "得动": 6205,
      "念念": 6206,
      "忽抬头": 6207,
      "怒道": 6208,
      "我已": 6209,
      "所谓": 6210,
      "打着": 6211,
      "把师父": 6212,
      "换了": 6213,
      "放他": 6214,
      "救你": 6215,
      "救师父": 6216,
      "整衣": 6217,
      "施威": 6218,
      "有缘": 6219,
      "有两个": 6220,
      "朱紫": 6221,
      "杨柳": 6222,
      "枪刀": 6223,
      "江山": 6224,
      "没人": 6225,
      "泼魔": 6226,
      "滴泪道": 6227,
      "灯火": 6228,
      "烧火": 6229,
      "物件": 6230,
      "等众": 6231,
      "紧箍儿咒": 6232,
      "自古": 6233,
      "虎皮": 6234,
      "虫儿": 6235,
      "袖中": 6236,
      "西来": 6237,
      "请唐僧": 6238,
      "走上前": 6239,
      "躲过": 6240,
      "转过": 6241,
      "逍遥": 6242,
      "那山": 6243,
      "那般": 6244,
      "长枪": 6245,
      "随身": 6246,
      "飘飘": 6247,
      "饶他": 6248,
      "饶命": 6249,
      "驾下": 6250,
      "高叫": 6251,
      "黄风": 6252,
      "我们是": 6253,
      "原来是个": 6254,
      "爷爷呀": 6255,
      "变做一个": 6256,
      "罗刹女": 6257,
      "说得是": 6258,
      "轻轻的": 6259,
      "不打紧": 6260,
      "将身一纵": 6261,
      "火焰山": 6262,
      "吹口仙气叫": 6263,
      "一宵": 6264,
      "一身": 6265,
      "下雨": 6266,
      "东洋": 6267,
      "之际": 6268,
      "九齿": 6269,
      "也不是": 6270,
      "伏虎": 6271,
      "众仙": 6272,
      "你好": 6273,
      "你等": 6274,
      "依旧": 6275,
      "健将": 6276,
      "偷了": 6277,
      "儿来": 6278,
      "先去": 6279,
      "出一个": 6280,
      "别人": 6281,
      "南赡": 6282,
      "古怪": 6283,
      "吃人": 6284,
      "后来": 6285,
      "回合": 6286,
      "圣旨": 6287,
      "地方": 6288,
      "坐着": 6289,
      "大力": 6290,
      "太监": 6291,
      "奉旨": 6292,
      "好个": 6293,
      "定要": 6294,
      "寺院": 6295,
      "将身": 6296,
      "将出来": 6297,
      "少时": 6298,
      "就去": 6299,
      "彀了": 6300,
      "当驾": 6301,
      "急忙": 6302,
      "恐怕": 6303,
      "情愿": 6304,
      "成的": 6305,
      "我又": 6306,
      "我还": 6307,
      "托塔": 6308,
      "把行者": 6309,
      "拿去": 6310,
      "无穷": 6311,
      "来粗细": 6312,
      "楼上": 6313,
      "楼下": 6314,
      "欺心": 6315,
      "毛脸": 6316,
      "水晶": 6317,
      "水面": 6318,
      "没了": 6319,
      "泼怪": 6320,
      "火德": 6321,
      "然不": 6322,
      "父亲": 6323,
      "甚是": 6324,
      "留下": 6325,
      "相逢": 6326,
      "石头": 6327,
      "算计": 6328,
      "绣球": 6329,
      "老大": 6330,
      "而走": 6331,
      "茶饭": 6332,
      "荆棘": 6333,
      "见驾": 6334,
      "误了": 6335,
      "说他": 6336,
      "跳下": 6337,
      "身边": 6338,
      "送他": 6339,
      "那厢": 6340,
      "那三个": 6341,
      "锦绣": 6342,
      "闻此言": 6343,
      "鬼王": 6344,
      "师父的": 6345,
      "那里话": 6346,
      "徒弟们": 6347,
      "是个甚么": 6348,
      "怎生是好": 6349,
      "十分欢喜": 6350,
      "合掌道": 6351,
      "须臾间": 6352,
      "满心欢喜": 6353,
      "一同": 6354,
      "一张": 6355,
      "一道": 6356,
      "万道": 6357,
      "上了": 6358,
      "下降": 6359,
      "不通": 6360,
      "且住": 6361,
      "且去": 6362,
      "东方": 6363,
      "九曜": 6364,
      "今早": 6365,
      "伤人": 6366,
      "化作": 6367,
      "十三年": 6368,
      "去的": 6369,
      "又一": 6370,
      "只好": 6371,
      "吃哩": 6372,
      "各执": 6373,
      "唿喇": 6374,
      "喜喜欢": 6375,
      "圣宫": 6376,
      "在后": 6377,
      "在家": 6378,
      "在半空": 6379,
      "坐了": 6380,
      "大哭": 6381,
      "头一": 6382,
      "女菩萨": 6383,
      "姓名": 6384,
      "定是": 6385,
      "寻他": 6386,
      "小钻风": 6387,
      "就来": 6388,
      "岂有": 6389,
      "帅众": 6390,
      "年纪": 6391,
      "念佛": 6392,
      "我佛": 6393,
      "我因": 6394,
      "我师": 6395,
      "我两个": 6396,
      "手持": 6397,
      "护持": 6398,
      "报与": 6399,
      "捉弄": 6400,
      "摆列": 6401,
      "擂鼓": 6402,
      "是也": 6403,
      "有道": 6404,
      "杀了": 6405,
      "来往": 6406,
      "林中": 6407,
      "正自": 6408,
      "正走": 6409,
      "殿前": 6410,
      "没事": 6411,
      "烟火": 6412,
      "玉兔": 6413,
      "着唐僧": 6414,
      "着铁棒": 6415,
      "福地": 6416,
      "第一": 6417,
      "紧紧": 6418,
      "而回": 6419,
      "胜败": 6420,
      "话表": 6421,
      "请他": 6422,
      "赶到": 6423,
      "赶来": 6424,
      "辞了": 6425,
      "远来": 6426,
      "那三": 6427,
      "那条": 6428,
      "那贼": 6429,
      "都要": 6430,
      "都道": 6431,
      "难禁": 6432,
      "风吹": 6433,
      "香火": 6434,
      "鬼神": 6435,
      "行者即": 6436,
      "行者却": 6437,
      "行者上前": 6438,
      "徒弟呀": 6439,
      "闻言即": 6440,
      "不曾见": 6441,
      "在此间": 6442,
      "猴王道": 6443,
      "都是些": 6444,
      "那时节": 6445,
      "第二个": 6446,
      "更时分": 6447,
      "拽开步": 6448,
      "南赡部洲": 6449,
      "喜喜欢欢": 6450,
      "一点": 6451,
      "一顶": 6452,
      "不及": 6453,
      "个人": 6454,
      "乱打": 6455,
      "了马": 6456,
      "了些儿": 6457,
      "五庄": 6458,
      "伶俐": 6459,
      "何干": 6460,
      "作礼道": 6461,
      "便似": 6462,
      "值功曹": 6463,
      "几句": 6464,
      "分开": 6465,
      "卷帘": 6466,
      "又是": 6467,
      "吃得": 6468,
      "在于": 6469,
      "在门": 6470,
      "坏了": 6471,
      "外边": 6472,
      "天气": 6473,
      "太尉": 6474,
      "家子": 6475,
      "将出去": 6476,
      "小仙": 6477,
      "岸上": 6478,
      "已此": 6479,
      "弥陀": 6480,
      "往那里": 6481,
      "念经": 6482,
      "我王": 6483,
      "战经": 6484,
      "手执": 6485,
      "护法": 6486,
      "拔下": 6487,
      "拜了": 6488,
      "捉住": 6489,
      "撞见": 6490,
      "无踪": 6491,
      "既有": 6492,
      "是一个": 6493,
      "普陀": 6494,
      "有事": 6495,
      "本身": 6496,
      "来时": 6497,
      "森森": 6498,
      "死活": 6499,
      "水火": 6500,
      "洞天": 6501,
      "琉璃": 6502,
      "甚喜": 6503,
      "的话": 6504,
      "着你": 6505,
      "禅师": 6506,
      "立在": 6507,
      "管待": 6508,
      "索战": 6509,
      "绳索": 6510,
      "翻波": 6511,
      "老实": 6512,
      "而行": 6513,
      "耍耍": 6514,
      "腾腾": 6515,
      "若有": 6516,
      "见得": 6517,
      "解脱": 6518,
      "请菩萨": 6519,
      "路程": 6520,
      "身下拜": 6521,
      "这话": 6522,
      "这两个": 6523,
      "这不是": 6524,
      "饮酒": 6525,
      "高老": 6526,
      "行者见": 6527,
      "变作一个": 6528,
      "不觉的": 6529,
      "哪吒太子": 6530,
      "不分胜负": 6531,
      "雷公嘴": 6532,
      "正说处": 6533,
      "火眼金睛": 6534,
      "二十八宿": 6535,
      "水晶宫": 6536,
      "五庄观": 6537,
      "一夜": 6538,
      "一生": 6539,
      "万千": 6540,
      "上山": 6541,
      "下有": 6542,
      "不管": 6543,
      "与师父": 6544,
      "丢下": 6545,
      "两家": 6546,
      "个咒语": 6547,
      "举钯": 6548,
      "九头": 6549,
      "云光": 6550,
      "今朝": 6551,
      "伺候": 6552,
      "但不知": 6553,
      "俱是": 6554,
      "倒了": 6555,
      "儿也": 6556,
      "凤仙": 6557,
      "凭你": 6558,
      "功果": 6559,
      "助力": 6560,
      "十王": 6561,
      "却来": 6562,
      "又无": 6563,
      "受了": 6564,
      "只道": 6565,
      "吃酒": 6566,
      "同去": 6567,
      "呼唤": 6568,
      "回生": 6569,
      "备言": 6570,
      "天罗": 6571,
      "太平": 6572,
      "好好": 6573,
      "子里": 6574,
      "小猴": 6575,
      "干事": 6576,
      "延寿": 6577,
      "待老孙": 6578,
      "得紧": 6579,
      "忙忙": 6580,
      "我不是": 6581,
      "我晓得": 6582,
      "打出": 6583,
      "报怨": 6584,
      "挡住": 6585,
      "放光": 6586,
      "方得": 6587,
      "旁边": 6588,
      "无不": 6589,
      "无量": 6590,
      "日久": 6591,
      "显神通": 6592,
      "暗中": 6593,
      "有难": 6594,
      "有三个": 6595,
      "来道": 6596,
      "正当": 6597,
      "此乃": 6598,
      "此事": 6599,
      "死的": 6600,
      "没处": 6601,
      "点起": 6602,
      "瑞霭": 6603,
      "甚好": 6604,
      "用心": 6605,
      "男女": 6606,
      "的徒弟": 6607,
      "皇宫": 6608,
      "相会": 6609,
      "看得": 6610,
      "真人": 6611,
      "真仙": 6612,
      "碗来粗细": 6613,
      "神将": 6614,
      "神洲": 6615,
      "窟窿": 6616,
      "绳子": 6617,
      "翅飞": 6618,
      "脸上": 6619,
      "自从": 6620,
      "致令": 6621,
      "若论": 6622,
      "莫怪": 6623,
      "莫能": 6624,
      "藏在": 6625,
      "行满": 6626,
      "见你": 6627,
      "说了": 6628,
      "请起": 6629,
      "走走": 6630,
      "跪在": 6631,
      "迎风": 6632,
      "这才是": 6633,
      "送出": 6634,
      "途中": 6635,
      "那娘娘": 6636,
      "金蝉": 6637,
      "金身": 6638,
      "闪过": 6639,
      "阿傩": 6640,
      "陪笑道": 6641,
      "飞禽": 6642,
      "高低": 6643,
      "龙床": 6644,
      "老孙的": 6645,
      "如来道": 6646,
      "怎生模样": 6647,
      "战兢兢的": 6648,
      "抬头观看": 6649,
      "文武多官": 6650,
      "心中暗想道": 6651,
      "....": 6652,
      "捻着诀念": 6653,
      "太上老君": 6654,
      "一块": 6655,
      "一毫": 6656,
      "一边": 6657,
      "三宫": 6658,
      "上门": 6659,
      "不绝": 6660,
      "之前": 6661,
      "五个": 6662,
      "人事": 6663,
      "人物": 6664,
      "伸手": 6665,
      "何以": 6666,
      "你今": 6667,
      "俯伏": 6668,
      "倒身下拜": 6669,
      "倘或": 6670,
      "几番": 6671,
      "刘全": 6672,
      "剥皮": 6673,
      "十六": 6674,
      "又叫": 6675,
      "取水": 6676,
      "呼道": 6677,
      "哈哈": 6678,
      "善果": 6679,
      "喏道": 6680,
      "喝声": 6681,
      "喧哗": 6682,
      "四位": 6683,
      "大地": 6684,
      "大笑道": 6685,
      "太阳": 6686,
      "好汉": 6687,
      "好和尚": 6688,
      "嫔妃": 6689,
      "子上": 6690,
      "密密": 6691,
      "寻着": 6692,
      "小弟": 6693,
      "小怪": 6694,
      "就行": 6695,
      "层门": 6696,
      "峥嵘": 6697,
      "崖前": 6698,
      "巍巍": 6699,
      "差了": 6700,
      "幽冥": 6701,
      "彩云": 6702,
      "心肝": 6703,
      "快快": 6704,
      "急抽身": 6705,
      "息怒": 6706,
      "我今": 6707,
      "我好": 6708,
      "或者": 6709,
      "才好": 6710,
      "才得": 6711,
      "拜毕": 6712,
      "搭包": 6713,
      "文书": 6714,
      "斗牛": 6715,
      "昏君": 6716,
      "是必": 6717,
      "暗暗": 6718,
      "有多": 6719,
      "有三十": 6720,
      "本寺": 6721,
      "来把": 6722,
      "架子": 6723,
      "校尉": 6724,
      "此是": 6725,
      "水的": 6726,
      "浑身": 6727,
      "海龙": 6728,
      "犀牛": 6729,
      "瑶池": 6730,
      "痛哭": 6731,
      "眼中": 6732,
      "着嘴": 6733,
      "知他": 6734,
      "破了": 6735,
      "粉碎": 6736,
      "紧闭": 6737,
      "绑在": 6738,
      "老施主": 6739,
      "虎狼": 6740,
      "行礼": 6741,
      "西行": 6742,
      "走兽": 6743,
      "走过": 6744,
      "足下": 6745,
      "足踏": 6746,
      "路过": 6747,
      "身躯": 6748,
      "输赢": 6749,
      "这番": 6750,
      "这猴子": 6751,
      "酬谢": 6752,
      "重重": 6753,
      "钢刀": 6754,
      "钻入": 6755,
      "陈家": 6756,
      "霞光": 6757,
      "馆驿": 6758,
      "黄门": 6759,
      "行者才": 6760,
      "沙僧笑道": 6761,
      "那里有": 6762,
      "那老儿": 6763,
      "不住的": 6764,
      "行李马匹": 6765,
      "下马来": 6766,
      "开了门": 6767,
      "天色将": 6768,
      "你道他": 6769,
      "祸事了": 6770,
      "悄悄的": 6771,
      "大惊失色": 6772,
      "一二": 6773,
      "一卷": 6774,
      "一步": 6775,
      "万年": 6776,
      "下山": 6777,
      "不羞": 6778,
      "不一时": 6779,
      "与大圣": 6780,
      "东胜": 6781,
      "两人": 6782,
      "之情": 6783,
      "之道": 6784,
      "乒乓": 6785,
      "了又": 6786,
      "于此": 6787,
      "从头": 6788,
      "仙子": 6789,
      "众怪": 6790,
      "传令": 6791,
      "伤了": 6792,
      "你了": 6793,
      "你老": 6794,
      "光禄": 6795,
      "兜率": 6796,
      "再不": 6797,
      "出得": 6798,
      "刁钻": 6799,
      "前行": 6800,
      "劈脸": 6801,
      "南山": 6802,
      "却被": 6803,
      "却不知": 6804,
      "又教": 6805,
      "只听": 6806,
      "右手": 6807,
      "吃他": 6808,
      "向后": 6809,
      "哄我": 6810,
      "善财": 6811,
      "四下": 6812,
      "四面": 6813,
      "国之": 6814,
      "地网": 6815,
      "埋怨": 6816,
      "大道": 6817,
      "天涯": 6818,
      "太乙": 6819,
      "太岁": 6820,
      "失迎": 6821,
      "女童": 6822,
      "宝塔": 6823,
      "宝方": 6824,
      "宫娥": 6825,
      "对行者": 6826,
      "对行者道": 6827,
      "少顷": 6828,
      "居住": 6829,
      "岭上": 6830,
      "已毕": 6831,
      "当头": 6832,
      "得知": 6833,
      "得一个": 6834,
      "思凡": 6835,
      "把头": 6836,
      "指定": 6837,
      "捉了": 6838,
      "推倒": 6839,
      "放声": 6840,
      "斗经": 6841,
      "无影": 6842,
      "早有": 6843,
      "时节": 6844,
      "明珠": 6845,
      "替你": 6846,
      "有千": 6847,
      "有二十": 6848,
      "朋友": 6849,
      "来看": 6850,
      "架住": 6851,
      "棒来": 6852,
      "樵夫": 6853,
      "正好": 6854,
      "正要": 6855,
      "水府": 6856,
      "深山": 6857,
      "满堂": 6858,
      "灵吉": 6859,
      "烟霞": 6860,
      "牵着马": 6861,
      "狮驼": 6862,
      "狼虫": 6863,
      "玉华": 6864,
      "瑶草": 6865,
      "留他": 6866,
      "相助": 6867,
      "真的": 6868,
      "着脚": 6869,
      "着两个": 6870,
      "神威": 6871,
      "立于": 6872,
      "第三个": 6873,
      "索性": 6874,
      "群猴": 6875,
      "老王": 6876,
      "肉眼": 6877,
      "艳艳": 6878,
      "要见": 6879,
      "要走": 6880,
      "见行者": 6881,
      "认不得": 6882,
      "诸神": 6883,
      "象个": 6884,
      "还魂": 6885,
      "这山": 6886,
      "这长老": 6887,
      "那伙": 6888,
      "那三藏": 6889,
      "邪魔": 6890,
      "金铙": 6891,
      "镇元": 6892,
      "降了": 6893,
      "领着": 6894,
      "高峰": 6895,
      "黑风": 6896,
      "行者将": 6897,
      "师父说": 6898,
      "那怪闻言": 6899,
      "了一下": 6900,
      "师徒四众": 6901,
      "怎生打扮": 6902,
      "你是那里来的": 6903,
      "仔细观看": 6904,
      "递与行者": 6905,
      "降妖杖": 6906,
      "磕头道": 6907,
      "金星道": 6908,
      "保护唐僧": 6909,
      "山神土地": 6910,
      "急纵身": 6911,
      "魂飞魄散": 6912,
      "光禄寺": 6913,
      "三合": 6914,
      "三层": 6915,
      "三清": 6916,
      "上写着": 6917,
      "下面": 6918,
      "不生": 6919,
      "东南": 6920,
      "两口": 6921,
      "两银子": 6922,
      "之地": 6923,
      "之辈": 6924,
      "九个": 6925,
      "云洞": 6926,
      "五色": 6927,
      "令郎": 6928,
      "伤生": 6929,
      "何不": 6930,
      "何往": 6931,
      "你哩": 6932,
      "你那里": 6933,
      "便问": 6934,
      "全真": 6935,
      "公道": 6936,
      "冷笑道": 6937,
      "前年": 6938,
      "前者": 6939,
      "剥了": 6940,
      "勒马": 6941,
      "南北": 6942,
      "口称": 6943,
      "只等": 6944,
      "吃斋": 6945,
      "各自": 6946,
      "吊在": 6947,
      "向西": 6948,
      "唐长老": 6949,
      "商议": 6950,
      "喝一声": 6951,
      "四百": 6952,
      "因为": 6953,
      "围绕": 6954,
      "在半空中": 6955,
      "城隍": 6956,
      "多心": 6957,
      "天井": 6958,
      "太白": 6959,
      "头儿": 6960,
      "奇花": 6961,
      "好似": 6962,
      "好便似": 6963,
      "姓孙": 6964,
      "娘子": 6965,
      "孔雀": 6966,
      "孩子": 6967,
      "宇宙": 6968,
      "对对": 6969,
      "寺僧": 6970,
      "就此": 6971,
      "尽是": 6972,
      "山前": 6973,
      "工夫": 6974,
      "巨灵": 6975,
      "年年": 6976,
      "廊下": 6977,
      "当日": 6978,
      "往西": 6979,
      "径奔": 6980,
      "待要": 6981,
      "得一": 6982,
      "御花园": 6983,
      "心上": 6984,
      "心里": 6985,
      "忘了": 6986,
      "慢慢": 6987,
      "我哩": 6988,
      "我门": 6989,
      "掀翻": 6990,
      "摇摇": 6991,
      "撞着": 6992,
      "播土": 6993,
      "斋供": 6994,
      "施礼": 6995,
      "旌旗": 6996,
      "无计": 6997,
      "早见": 6998,
      "有这般": 6999,
      "朦胧": 7000,
      "木母": 7001,
      "来报": 7002,
      "殷勤": 7003,
      "毂辘": 7004,
      "涧边": 7005,
      "淋淋": 7006,
      "灼灼": 7007,
      "玲珑": 7008,
      "男子": 7009,
      "白日": 7010,
      "相送": 7011,
      "看经": 7012,
      "石门": 7013,
      "精灵": 7014,
      "绳儿": 7015,
      "缰绳": 7016,
      "老虎": 7017,
      "老鼋": 7018,
      "老和尚": 7019,
      "老官儿": 7020,
      "般兵器": 7021,
      "若肯": 7022,
      "若不是": 7023,
      "落下": 7024,
      "虎力": 7025,
      "行经": 7026,
      "诸佛": 7027,
      "跳在空中": 7028,
      "近侍": 7029,
      "还你": 7030,
      "还不曾": 7031,
      "这怪": 7032,
      "通明": 7033,
      "那太子": 7034,
      "那壁厢": 7035,
      "那妇人": 7036,
      "都到": 7037,
      "都去": 7038,
      "都有": 7039,
      "金皘": 7040,
      "钢叉": 7041,
      "长官": 7042,
      "长者": 7043,
      "随即": 7044,
      "顽耍": 7045,
      "领命": 7046,
      "馍馍": 7047,
      "高坐": 7048,
      "龙马": 7049,
      "行者骂道": 7050,
      "那里边": 7051,
      "妖精道": 7052,
      "了一会": 7053,
      "见了道": 7054,
      "有些儿": 7055,
      "玉帝道": 7056,
      "那些人": 7057,
      "听见道": 7058,
      "也罢也罢": 7059,
      "摇身一变变做个": 7060,
      "现了本象": 7061,
      "在旁边": 7062,
      "八百里": 7063,
      "行者暗笑道": 7064,
      "长嘴大": 7065,
      "五百年前大闹天宫": 7066,
      "六丁六甲": 7067,
      "袖中取出": 7068,
      "一头": 7069,
      "一束": 7070,
      "一杯": 7071,
      "一柄": 7072,
      "一番": 7073,
      "不安": 7074,
      "主人": 7075,
      "之宝": 7076,
      "也要": 7077,
      "了罢": 7078,
      "了道": 7079,
      "争持": 7080,
      "二怪": 7081,
      "人身": 7082,
      "他把": 7083,
      "众小妖": 7084,
      "住处": 7085,
      "你快": 7086,
      "做甚么": 7087,
      "再拜": 7088,
      "再不敢": 7089,
      "决不敢": 7090,
      "几何": 7091,
      "分毫": 7092,
      "到他": 7093,
      "化为": 7094,
      "化了": 7095,
      "十个": 7096,
      "即变做": 7097,
      "却如": 7098,
      "却只是": 7099,
      "又恐": 7100,
      "双双": 7101,
      "只情": 7102,
      "叫唤": 7103,
      "吃些": 7104,
      "吃了一": 7105,
      "吉凶": 7106,
      "周围": 7107,
      "咬牙": 7108,
      "咬着": 7109,
      "回至": 7110,
      "回话": 7111,
      "在身上": 7112,
      "地上": 7113,
      "地下": 7114,
      "坡下": 7115,
      "坡前": 7116,
      "城门": 7117,
      "声咒语": 7118,
      "夜间": 7119,
      "失了": 7120,
      "头目": 7121,
      "好呆子": 7122,
      "好猴王": 7123,
      "如雷": 7124,
      "字乃": 7125,
      "实是": 7126,
      "对唐僧": 7127,
      "将下来": 7128,
      "小徒": 7129,
      "尽力": 7130,
      "尽情": 7131,
      "岸边": 7132,
      "左边": 7133,
      "差来": 7134,
      "帝王": 7135,
      "弄得": 7136,
      "径直": 7137,
      "心焦": 7138,
      "心惊道": 7139,
      "我不曾": 7140,
      "扯扯": 7141,
      "把金箍棒": 7142,
      "拜为": 7143,
      "拦住": 7144,
      "拽步": 7145,
      "摩昂": 7146,
      "擒拿": 7147,
      "收伏": 7148,
      "救人": 7149,
      "救我一": 7150,
      "敲着": 7151,
      "无处": 7152,
      "无方": 7153,
      "早间": 7154,
      "是东土大唐": 7155,
      "本处": 7156,
      "来历": 7157,
      "来见": 7158,
      "果有": 7159,
      "查勘": 7160,
      "柱上": 7161,
      "毗蓝": 7162,
      "江州": 7163,
      "沐浴": 7164,
      "泾河": 7165,
      "满面": 7166,
      "照顾": 7167,
      "独自": 7168,
      "猴精": 7169,
      "玉面": 7170,
      "留心": 7171,
      "的模样": 7172,
      "相识": 7173,
      "相近": 7174,
      "相随": 7175,
      "看茶": 7176,
      "真身": 7177,
      "着了": 7178,
      "笑吟": 7179,
      "筋麻": 7180,
      "简帖": 7181,
      "紫金": 7182,
      "结束": 7183,
      "缥缈": 7184,
      "老小": 7185,
      "老母": 7186,
      "老龙王": 7187,
      "而退": 7188,
      "舍利": 7189,
      "荒山": 7190,
      "莫哭": 7191,
      "萧瑀": 7192,
      "落伽": 7193,
      "蒙菩萨": 7194,
      "蓬莱": 7195,
      "蟭蟟": 7196,
      "街上": 7197,
      "要去": 7198,
      "见师父": 7199,
      "见一个": 7200,
      "识得": 7201,
      "诚为": 7202,
      "诚然": 7203,
      "谢道": 7204,
      "走上": 7205,
      "赴会": 7206,
      "赶早": 7207,
      "轮回": 7208,
      "软筋麻": 7209,
      "这泼猴": 7210,
      "进了": 7211,
      "进门": 7212,
      "连夜": 7213,
      "连马": 7214,
      "送我师父": 7215,
      "那公主": 7216,
      "那猴子": 7217,
      "金山": 7218,
      "锦衣": 7219,
      "降魔": 7220,
      "险峻": 7221,
      "鞍辔": 7222,
      "须要": 7223,
      "飞腾": 7224,
      "骨都": 7225,
      "高下": 7226,
      "高僧": 7227,
      "龙子": 7228,
      "行者近前": 7229,
      "八戒闻言": 7230,
      "师父放心": 7231,
      "我们也": 7232,
      "悟空你": 7233,
      "那个是": 7234,
      "那老妖": 7235,
      "见他们": 7236,
      "哥哥你": 7237,
      "娘娘道": 7238,
      "有何难": 7239,
      "一座高山": 7240,
      "一时间": 7241,
      "三年前": 7242,
      "礼拜道": 7243,
      "一根毫毛": 7244,
      "走出一个": 7245,
      "躬身道": 7246,
      "如意棒": 7247,
      "饶你性命": 7248,
      "我把你这个": 7249,
      "十万八": 7250,
      "半个时辰": 7251,
      "牵马挑担": 7252,
      "山凹里": 7253,
      "观世音菩萨": 7254,
      "当驾官": 7255,
      "凤仙郡": 7256,
      "天罗地网": 7257,
      "天色将晚": 7258,
      "东胜神洲": 7259,
      "》。": 7260,
      "一对": 7261,
      "一样": 7262,
      "一难": 7263,
      "上西方": 7264,
      "下落": 7265,
      "不死": 7266,
      "不稳": 7267,
      "不胜": 7268,
      "两日": 7269,
      "举起": 7270,
      "之喜": 7271,
      "之数": 7272,
      "之遥": 7273,
      "乌鸡": 7274,
      "事不": 7275,
      "人头": 7276,
      "人子": 7277,
      "他这": 7278,
      "他门": 7279,
      "传报": 7280,
      "你把": 7281,
      "使一个": 7282,
      "便走": 7283,
      "便罢了": 7284,
      "假的": 7285,
      "元神": 7286,
      "内外": 7287,
      "冲天": 7288,
      "几乎": 7289,
      "凡人": 7290,
      "凶恶": 7291,
      "出身": 7292,
      "力士": 7293,
      "千山": 7294,
      "千般": 7295,
      "半夜": 7296,
      "半晌": 7297,
      "又念": 7298,
      "取胜": 7299,
      "只说是": 7300,
      "各人": 7301,
      "向南": 7302,
      "和你去": 7303,
      "商量": 7304,
      "啼哭": 7305,
      "嘻嘻": 7306,
      "回家": 7307,
      "在上": 7308,
      "在你": 7309,
      "在路": 7310,
      "地府": 7311,
      "坐定": 7312,
      "声响": 7313,
      "大人": 7314,
      "奉承": 7315,
      "嫂嫂": 7316,
      "宝象": 7317,
      "宝阁": 7318,
      "家僮": 7319,
      "家家": 7320,
      "将起去": 7321,
      "小心": 7322,
      "就于": 7323,
      "就筑": 7324,
      "山川": 7325,
      "峻岭": 7326,
      "布金": 7327,
      "布直裰": 7328,
      "庄上": 7329,
      "弄个": 7330,
      "彀多时": 7331,
      "形容": 7332,
      "往上": 7333,
      "往里": 7334,
      "径上": 7335,
      "径来": 7336,
      "得道": 7337,
      "快走": 7338,
      "急转身": 7339,
      "恨道": 7340,
      "惊恐": 7341,
      "感谢": 7342,
      "成了": 7343,
      "我看": 7344,
      "我要": 7345,
      "我问你": 7346,
      "把你": 7347,
      "把腰": 7348,
      "护教": 7349,
      "拖着": 7350,
      "拴在": 7351,
      "掣铁棒": 7352,
      "摆开": 7353,
      "放火": 7354,
      "救出": 7355,
      "救苦": 7356,
      "无光": 7357,
      "无甚": 7358,
      "旧路": 7359,
      "星辰": 7360,
      "暗自": 7361,
      "有分": 7362,
      "有那": 7363,
      "来得": 7364,
      "来迎": 7365,
      "次早": 7366,
      "此地": 7367,
      "水中": 7368,
      "水来": 7369,
      "水河": 7370,
      "没头": 7371,
      "没甚": 7372,
      "洞内": 7373,
      "洞门外": 7374,
      "满地": 7375,
      "炉中": 7376,
      "烧了": 7377,
      "牛头": 7378,
      "瓜果": 7379,
      "的也": 7380,
      "的事": 7381,
      "的一个": 7382,
      "看不尽": 7383,
      "真实": 7384,
      "着八戒": 7385,
      "着师父": 7386,
      "睁睛": 7387,
      "秉教": 7388,
      "答礼道": 7389,
      "纵起": 7390,
      "美人": 7391,
      "脑后": 7392,
      "脚下": 7393,
      "舅爷": 7394,
      "般若": 7395,
      "衣冠": 7396,
      "西梁": 7397,
      "观里": 7398,
      "解开": 7399,
      "认了": 7400,
      "请坐": 7401,
      "请我": 7402,
      "败了": 7403,
      "走到": 7404,
      "走近前": 7405,
      "跟我": 7406,
      "路径": 7407,
      "辨明": 7408,
      "进退": 7409,
      "送行": 7410,
      "通天河": 7411,
      "道理": 7412,
      "那大仙": 7413,
      "那皇帝": 7414,
      "那童子": 7415,
      "郎君": 7416,
      "针儿": 7417,
      "锦襕": 7418,
      "阎君": 7419,
      "阿弥陀": 7420,
      "马来": 7421,
      "黄昏": 7422,
      "黑汉": 7423,
      "行者把": 7424,
      "行者喝道": 7425,
      "三藏见了": 7426,
      "唐僧的": 7427,
      "不知他": 7428,
      "不知好歹": 7429,
      "我们去": 7430,
      "这个是": 7431,
      "有一事": 7432,
      "往西天拜佛求经": 7433,
      "唬得个": 7434,
      "花果山水帘洞": 7435,
      "灵霄宝殿": 7436,
      "这一场好杀": 7437,
      "抖擞精神": 7438,
      "霎时间": 7439,
      "南天门外": 7440,
      "两班文武": 7441,
      "朱紫国": 7442,
      "东洋大海": 7443,
      "黄门官": 7444,
      "笑吟吟": 7445,
      "阿弥陀佛": 7446,
      "——": 7447,
      "一天": 7448,
      "一念": 7449,
      "一盘": 7450,
      "七星": 7451,
      "三界": 7452,
      "三太子": 7453,
      "不中": 7454,
      "不亚": 7455,
      "不到": 7456,
      "不善": 7457,
      "不干": 7458,
      "不该": 7459,
      "丢开": 7460,
      "举步": 7461,
      "乃东土大唐": 7462,
      "也就": 7463,
      "了许多": 7464,
      "五七": 7465,
      "他三个": 7466,
      "令牌": 7467,
      "休怕": 7468,
      "会同": 7469,
      "佛前": 7470,
      "作怪": 7471,
      "侍奉": 7472,
      "俱无": 7473,
      "八十": 7474,
      "八卦": 7475,
      "再来": 7476,
      "出入": 7477,
      "刀砍": 7478,
      "别处": 7479,
      "劈面": 7480,
      "功成": 7481,
      "化些": 7482,
      "即传旨": 7483,
      "却把": 7484,
      "又至": 7485,
      "又不是": 7486,
      "号令": 7487,
      "吃的": 7488,
      "同心": 7489,
      "呐喊": 7490,
      "呼风": 7491,
      "咄的一声": 7492,
      "哄了": 7493,
      "唱个": 7494,
      "唿哨": 7495,
      "喊声": 7496,
      "四方": 7497,
      "四值功曹": 7498,
      "围住": 7499,
      "在前": 7500,
      "地藏": 7501,
      "大事": 7502,
      "大将": 7503,
      "大慈": 7504,
      "大神": 7505,
      "天丁": 7506,
      "天光": 7507,
      "孤拐": 7508,
      "宝山": 7509,
      "害了": 7510,
      "宽心": 7511,
      "寇家": 7512,
      "富贵": 7513,
      "将近": 7514,
      "小可": 7515,
      "小童": 7516,
      "小王子": 7517,
      "岂知": 7518,
      "幢幡": 7519,
      "干粮": 7520,
      "年幼": 7521,
      "弥勒": 7522,
      "归真": 7523,
      "彩雾": 7524,
      "必是": 7525,
      "忽见那": 7526,
      "怎肯": 7527,
      "意欲": 7528,
      "感激": 7529,
      "我做": 7530,
      "我是个": 7531,
      "我也不": 7532,
      "才然": 7533,
      "打上": 7534,
      "打倒": 7535,
      "打的": 7536,
      "扬尘": 7537,
      "担子": 7538,
      "拳头": 7539,
      "指教": 7540,
      "指望": 7541,
      "指示": 7542,
      "捶胸": 7543,
      "搅乱": 7544,
      "携手": 7545,
      "摄去": 7546,
      "收降": 7547,
      "方好": 7548,
      "旋风": 7549,
      "春娇": 7550,
      "是以": 7551,
      "是那里": 7552,
      "有功": 7553,
      "有劳": 7554,
      "有有": 7555,
      "有经": 7556,
      "有罪": 7557,
      "杀人": 7558,
      "村舍": 7559,
      "来国": 7560,
      "来家": 7561,
      "来耶": 7562,
      "来得好": 7563,
      "果品": 7564,
      "梆铃": 7565,
      "水流": 7566,
      "沉吟": 7567,
      "没个": 7568,
      "混沌": 7569,
      "满山": 7570,
      "火来": 7571,
      "灯光": 7572,
      "猪悟能": 7573,
      "猿猴": 7574,
      "甘雨": 7575,
      "生死": 7576,
      "畜生": 7577,
      "的好": 7578,
      "的不是": 7579,
      "的宝贝": 7580,
      "省悟": 7581,
      "看你": 7582,
      "着行者": 7583,
      "睡下": 7584,
      "立定": 7585,
      "站在": 7586,
      "管教": 7587,
      "米饭": 7588,
      "绣花": 7589,
      "翠云": 7590,
      "老大王": 7591,
      "老怪道": 7592,
      "肚子": 7593,
      "腰里": 7594,
      "腾那": 7595,
      "自来": 7596,
      "花香": 7597,
      "苏醒": 7598,
      "若干": 7599,
      "藏了": 7600,
      "褊衫": 7601,
      "西域": 7602,
      "见面": 7603,
      "许久": 7604,
      "诚所谓": 7605,
      "说声": 7606,
      "请了": 7607,
      "谁敢": 7608,
      "赤脚": 7609,
      "走石": 7610,
      "赶至": 7611,
      "跳到": 7612,
      "跳在": 7613,
      "踪迹": 7614,
      "轮起": 7615,
      "这条": 7616,
      "这壁厢": 7617,
      "进朝": 7618,
      "进洞": 7619,
      "遍地": 7620,
      "那话儿": 7621,
      "金平": 7622,
      "钟鼓": 7623,
      "铁棍": 7624,
      "门中": 7625,
      "闭了": 7626,
      "问他一": 7627,
      "陈了一遍": 7628,
      "隐隐": 7629,
      "风云": 7630,
      "驾起": 7631,
      "骷髅": 7632,
      "麒麟": 7633,
      "齐来": 7634,
      "师父莫": 7635,
      "我们且": 7636,
      "如何得": 7637,
      "这里来": 7638,
      "却说行者": 7639,
      "认得他": 7640,
      "你们都": 7641,
      "二十四": 7642,
      "那些和尚": 7643,
      "老君道": 7644,
      "耳朵里": 7645,
      "长安城": 7646,
      "灵霄殿": 7647,
      "樵子道": 7648,
      "十万天兵": 7649,
      "天蓬元帅": 7650,
      "摇身一变变作个": 7651,
      "虎皮裙": 7652,
      "骨都都": 7653,
      "一心": 7654,
      "一棍": 7655,
      "万物": 7656,
      "三市": 7657,
      "上身": 7658,
      "下殿": 7659,
      "不便": 7660,
      "不听": 7661,
      "不忍": 7662,
      "不言": 7663,
      "丝绳": 7664,
      "两扇": 7665,
      "两界": 7666,
      "为僧": 7667,
      "举着": 7668,
      "之所": 7669,
      "之路": 7670,
      "乔松": 7671,
      "也好": 7672,
      "也无": 7673,
      "也还": 7674,
      "乱筑": 7675,
      "了行李": 7676,
      "五谷": 7677,
      "人心": 7678,
      "人氏": 7679,
      "他便": 7680,
      "他要": 7681,
      "伤损": 7682,
      "何人": 7683,
      "佛旨": 7684,
      "你先": 7685,
      "你再": 7686,
      "你是个": 7687,
      "你如今": 7688,
      "使出": 7689,
      "便打": 7690,
      "便要": 7691,
      "儿就": 7692,
      "公然不": 7693,
      "六街": 7694,
      "关门": 7695,
      "凄惨": 7696,
      "凶顽": 7697,
      "出宫": 7698,
      "出洞": 7699,
      "刚才": 7700,
      "到我": 7701,
      "到西天": 7702,
      "前番": 7703,
      "区处": 7704,
      "医治": 7705,
      "十代": 7706,
      "半月": 7707,
      "南天门": 7708,
      "即令": 7709,
      "却要": 7710,
      "去不得": 7711,
      "又闻得": 7712,
      "取真经": 7713,
      "台上": 7714,
      "吃饭": 7715,
      "名号": 7716,
      "后妃": 7717,
      "向东": 7718,
      "君子": 7719,
      "听着": 7720,
      "吾乃": 7721,
      "响一声": 7722,
      "喝退": 7723,
      "喝了一声": 7724,
      "四健将": 7725,
      "囫囵": 7726,
      "园里": 7727,
      "在草": 7728,
      "处只见": 7729,
      "大笑": 7730,
      "大雷音寺": 7731,
      "天仙": 7732,
      "天条": 7733,
      "头疼": 7734,
      "女官": 7735,
      "好山": 7736,
      "好风": 7737,
      "婆子": 7738,
      "子来": 7739,
      "安在": 7740,
      "实实": 7741,
      "寻些": 7742,
      "就在": 7743,
      "山后": 7744,
      "山场": 7745,
      "带了": 7746,
      "年前": 7747,
      "府县": 7748,
      "弄神通": 7749,
      "归正": 7750,
      "彩凤": 7751,
      "往上一": 7752,
      "忽失": 7753,
      "忽闻得": 7754,
      "怎见得": 7755,
      "性急": 7756,
      "慌张": 7757,
      "我怎么": 7758,
      "我与他": 7759,
      "我大王": 7760,
      "我记得": 7761,
      "打扫": 7762,
      "扶持": 7763,
      "把我们": 7764,
      "报信": 7765,
      "抬轿": 7766,
      "拈香": 7767,
      "揭了": 7768,
      "搀起道": 7769,
      "摆摆": 7770,
      "摇头": 7771,
      "放开": 7772,
      "教诲": 7773,
      "敢来": 7774,
      "文牒": 7775,
      "斯文": 7776,
      "无物": 7777,
      "时有": 7778,
      "是是": 7779,
      "是那里来的": 7780,
      "显圣": 7781,
      "有二": 7782,
      "有许多": 7783,
      "有本事": 7784,
      "有百十": 7785,
      "朝廷": 7786,
      "朝门外": 7787,
      "本性": 7788,
      "本来": 7789,
      "束一束": 7790,
      "来一": 7791,
      "柜里": 7792,
      "梦中": 7793,
      "榜文": 7794,
      "正南": 7795,
      "毗卢": 7796,
      "水伯": 7797,
      "泼猢狲": 7798,
      "流水": 7799,
      "浑家": 7800,
      "灵官": 7801,
      "烘烘": 7802,
      "狐狸": 7803,
      "狼牙": 7804,
      "獠牙": 7805,
      "现在": 7806,
      "甘露": 7807,
      "登山": 7808,
      "百姓": 7809,
      "的还": 7810,
      "眼色": 7811,
      "睁眼": 7812,
      "穿一领": 7813,
      "等老猪": 7814,
      "策马": 7815,
      "簇簇": 7816,
      "经过": 7817,
      "老僧道": 7818,
      "者乃": 7819,
      "而出": 7820,
      "背上": 7821,
      "脸的": 7822,
      "腮边": 7823,
      "臣等": 7824,
      "舍下": 7825,
      "船儿": 7826,
      "若到": 7827,
      "菩提": 7828,
      "虔心": 7829,
      "蜻蜓": 7830,
      "行事": 7831,
      "行动": 7832,
      "行走": 7833,
      "衣裳": 7834,
      "见有": 7835,
      "见玉帝": 7836,
      "解放": 7837,
      "设宴": 7838,
      "说来": 7839,
      "赶上前": 7840,
      "跪倒": 7841,
      "路遇": 7842,
      "身躲过": 7843,
      "辟尘": 7844,
      "还丹": 7845,
      "这宝贝": 7846,
      "这许多": 7847,
      "迟疑": 7848,
      "送还": 7849,
      "适间": 7850,
      "通关文": 7851,
      "遂将": 7852,
      "道声": 7853,
      "道童": 7854,
      "那猴": 7855,
      "那边": 7856,
      "那郡侯": 7857,
      "那妇人道": 7858,
      "金灯": 7859,
      "金莲": 7860,
      "金圣宫": 7861,
      "铁扇": 7862,
      "铺设": 7863,
      "错了": 7864,
      "长的": 7865,
      "门下": 7866,
      "问个": 7867,
      "阵势": 7868,
      "阿罗": 7869,
      "难脱": 7870,
      "顶礼": 7871,
      "飞在": 7872,
      "香案": 7873,
      "黄花": 7874,
      "龙孙": 7875,
      "龙神": 7876,
      "那里肯": 7877,
      "长老闻言": 7878,
      "甚么宝贝": 7879,
      "了一把": 7880,
      "却说孙大圣": 7881,
      "那老怪": 7882,
      "变作个": 7883,
      "一个个都": 7884,
      "走了风": 7885,
      "的是甚么": 7886,
      "你怎么就": 7887,
      "女子道": 7888,
      "吩咐道": 7889,
      "有何事": 7890,
      "也罢了": 7891,
      "不尽道": 7892,
      "金光寺": 7893,
      "现了原身": 7894,
      "慌了手脚": 7895,
      "心中暗喜道": 7896,
      "心惊胆战": 7897,
      "怕他怎的": 7898,
      "伯钦道": 7899,
      "半个不": 7900,
      "正行时": 7901,
      "顷刻间": 7902,
      "自古道": 7903,
      "四下里": 7904,
      "肉眼凡胎": 7905,
      "太白金星": 7906,
      "通关文牒": 7907,
      "一抖": 7908,
      "一望": 7909,
      "一纵": 7910,
      "一遍": 7911,
      "万丈": 7912,
      "万寿": 7913,
      "三字": 7914,
      "三股": 7915,
      "三魔": 7916,
      "上仙": 7917,
      "上国": 7918,
      "上岸": 7919,
      "上有一": 7920,
      "下官": 7921,
      "下海": 7922,
      "不妨": 7923,
      "不比": 7924,
      "不论": 7925,
      "不认得": 7926,
      "与人": 7927,
      "世上": 7928,
      "东阁": 7929,
      "之故": 7930,
      "之气": 7931,
      "也只": 7932,
      "也没": 7933,
      "也难": 7934,
      "亏了": 7935,
      "五六": 7936,
      "五凤": 7937,
      "人人": 7938,
      "人言": 7939,
      "他为": 7940,
      "他都": 7941,
      "他出来": 7942,
      "仙山": 7943,
      "以来": 7944,
      "休得": 7945,
      "会上": 7946,
      "但有": 7947,
      "但见他": 7948,
      "何日": 7949,
      "何用": 7950,
      "作礼": 7951,
      "你在": 7952,
      "你敢": 7953,
      "你虽": 7954,
      "你这等": 7955,
      "使者": 7956,
      "使一条": 7957,
      "使钉钯": 7958,
      "便教": 7959,
      "俗语": 7960,
      "俱道": 7961,
      "先吃": 7962,
      "光辉": 7963,
      "入里": 7964,
      "入洞里": 7965,
      "凡间": 7966,
      "到处": 7967,
      "剑戟": 7968,
      "劝善": 7969,
      "十世": 7970,
      "十四": 7971,
      "千条": 7972,
      "即取": 7973,
      "即着": 7974,
      "参禅": 7975,
      "又去": 7976,
      "又请": 7977,
      "受戒": 7978,
      "受罪": 7979,
      "受苦": 7980,
      "吃吾": 7981,
      "各归": 7982,
      "听讲": 7983,
      "唤雨": 7984,
      "喊道": 7985,
      "嚷嚷": 7986,
      "四海": 7987,
      "回国": 7988,
      "回朝": 7989,
      "国中": 7990,
      "在宫": 7991,
      "坐坐": 7992,
      "城外": 7993,
      "处治": 7994,
      "大国": 7995,
      "太阴": 7996,
      "头顶": 7997,
      "奉玉帝": 7998,
      "好善": 7999,
      "好的": 8000,
      "好去处": 8001,
      "妖仙": 8002,
      "实不瞒": 8003,
      "宫殿": 8004,
      "对手": 8005,
      "将就": 8006,
      "将这": 8007,
      "将行李": 8008,
      "山下": 8009,
      "崔判官": 8010,
      "干戈": 8011,
      "幸得": 8012,
      "座山": 8013,
      "异香": 8014,
      "引路": 8015,
      "强似": 8016,
      "彩女": 8017,
      "往下一": 8018,
      "微微": 8019,
      "心头": 8020,
      "必须": 8021,
      "忍着": 8022,
      "念个咒语": 8023,
      "忽闻": 8024,
      "怪石": 8025,
      "恐惧": 8026,
      "恼了": 8027,
      "惊醒": 8028,
      "我为": 8029,
      "我乃": 8030,
      "我当": 8031,
      "我那里": 8032,
      "我如今": 8033,
      "我怎的": 8034,
      "戴一顶": 8035,
      "所在": 8036,
      "打劫": 8037,
      "把八戒": 8038,
      "抢去": 8039,
      "报知": 8040,
      "抵敌": 8041,
      "拯救": 8042,
      "捆住": 8043,
      "摸摸": 8044,
      "放出": 8045,
      "救命": 8046,
      "敖顺": 8047,
      "整治": 8048,
      "整齐": 8049,
      "文殊": 8050,
      "断了": 8051,
      "方知": 8052,
      "无二": 8053,
      "早到": 8054,
      "早哩": 8055,
      "昂昂": 8056,
      "昨夜": 8057,
      "是东土": 8058,
      "晚斋": 8059,
      "有力": 8060,
      "有十": 8061,
      "有眼": 8062,
      "有七八": 8063,
      "条条": 8064,
      "来拜": 8065,
      "来有": 8066,
      "枯松": 8067,
      "根毫毛": 8068,
      "桃子": 8069,
      "正合": 8070,
      "正殿": 8071,
      "水里": 8072,
      "求雨": 8073,
      "沙悟净": 8074,
      "波罗": 8075,
      "泼物": 8076,
      "洗澡": 8077,
      "洞主": 8078,
      "洪福": 8079,
      "满口": 8080,
      "漠漠": 8081,
      "灯笼": 8082,
      "烧得": 8083,
      "照旧": 8084,
      "猛虎": 8085,
      "献茶": 8086,
      "理会": 8087,
      "甚事": 8088,
      "的手段": 8089,
      "的一般": 8090,
      "的儿子": 8091,
      "相同": 8092,
      "看那": 8093,
      "真如": 8094,
      "瞌睡": 8095,
      "知觉": 8096,
      "石屏": 8097,
      "石猴": 8098,
      "竹节": 8099,
      "等物": 8100,
      "筵席": 8101,
      "索子": 8102,
      "紫竹": 8103,
      "红孩儿": 8104,
      "给孤": 8105,
      "罢罢": 8106,
      "翻江": 8107,
      "老僧": 8108,
      "老幼": 8109,
      "而入": 8110,
      "聚集": 8111,
      "背后": 8112,
      "良久": 8113,
      "莫管": 8114,
      "行了": 8115,
      "行到": 8116,
      "被他一": 8117,
      "装了": 8118,
      "装天": 8119,
      "见个": 8120,
      "说不尽": 8121,
      "说那里话": 8122,
      "贤徒": 8123,
      "贵处": 8124,
      "跌脚": 8125,
      "跟前": 8126,
      "跳起来": 8127,
      "身披": 8128,
      "轮着": 8129,
      "连日": 8130,
      "那妖怪": 8131,
      "那罗刹": 8132,
      "那道人": 8133,
      "那妈妈": 8134,
      "邪正": 8135,
      "金绳": 8136,
      "钯筑": 8137,
      "长庚": 8138,
      "门儿": 8139,
      "门扇": 8140,
      "阶下": 8141,
      "陈玄奘": 8142,
      "陈光蕊": 8143,
      "降伏": 8144,
      "除了": 8145,
      "青脸": 8146,
      "预先": 8147,
      "领众": 8148,
      "食肠": 8149,
      "香风": 8150,
      "马的": 8151,
      "驾雾": 8152,
      "鱼精": 8153,
      "鸡鸣": 8154,
      "鹿力": 8155,
      "黄狮": 8156,
      "行者叫": 8157,
      "行者见他": 8158,
      "沙僧也": 8159,
      "怎么得": 8160,
      "怎么这等": 8161,
      "与他交战": 8162,
      "不敢久": 8163,
      "三个徒弟": 8164,
      "也不能": 8165,
      "在此处": 8166,
      "怎的好": 8167,
      "西天取经": 8168,
      "你这厮": 8169,
      "东土寻": 8170,
      "怎生得": 8171,
      "叫做甚么": 8172,
      "那些小妖": 8173,
      "三十六": 8174,
      "大小群妖": 8175,
      "安排些": 8176,
      "拿了去": 8177,
      "面前道": 8178,
      "四大天王": 8179,
      "没奈何只得": 8180,
      "现出本相": 8181,
      "伶俐虫": 8182,
      "分开水": 8183,
      "斗牛宫": 8184,
      "放声大哭": 8185,
      "十万八千里": 8186,
      "金平府": 8187,
      "一伙": 8188,
      "一年": 8189,
      "一派": 8190,
      "万古": 8191
    },
    "merges": [
      [
        ":",
        "“"
      ],
      [
        "。",
        "”"
      ],
      [
        "行",
        "者"
      ],
      [
        "?",
        "”"
      ],
      [
        "!",
        "”"
      ],
      [
        "八",
        "戒"
      ],
      [
        "师",
        "父"
      ],
      [
        "行者",
        "道"
      ],
      [
        "三",
        "藏"
      ],
      [
        "一",
        "个"
      ],
      [
        "大",
        "圣"
      ],
      [
        "唐",
        "僧"
      ],
      [
        "沙",
        "僧"
      ],
      [
        "和",
        "尚"
      ],
      [
        "菩",
        "萨"
      ],
      [
        "那",
        "里"
      ],
      [
        "怎",
        "么"
      ],
      [
        "笑",
        "道"
      ],
      [
        "不",
        "知"
      ],
      [
        "我",
        "们"
      ],
      [
        "长",
        "老"
      ],
      [
        "妖",
        "精"
      ],
      [
        "老",
        "孙"
      ],
      [
        "两",
        "个"
      ],
      [
        "八戒",
        "道"
      ],
      [
        "甚",
        "么"
      ],
      [
        "不",
        "是"
      ],
      [
        "悟",
        "空"
      ],
      [
        "见",
        "那"
      ],
      [
        "国",
        "王"
      ],
      [
        "三藏",
        "道"
      ],
      [
        "那",
        "怪"
      ],
      [
        "徒",
        "弟"
      ],
      [
        "了",
        "一"
      ],
      [
        "呆",
        "子"
      ],
      [
        "闻",
        "言"
      ],
      [
        "与",
        "他"
      ],
      [
        "大",
        "王"
      ],
      [
        "原",
        "来"
      ],
      [
        "不",
        "得"
      ],
      [
        "不",
        "敢"
      ],
      [
        "如",
        "何"
      ],
      [
        "不",
        "曾"
      ],
      [
        "这",
        "个"
      ],
      [
        "是",
        "个"
      ],
      [
        "见",
        "了"
      ],
      [
        "叫",
        "道"
      ],
      [
        "小",
        "妖"
      ],
      [
        "正",
        "是"
      ],
      [
        "只",
        "是"
      ],
      [
        "出",
        "来"
      ],
      [
        "等",
        "我"
      ],
      [
        "与",
        "你"
      ],
      [
        "真",
        "个"
      ],
      [
        "有",
        "一"
      ],
      [
        "一",
        "声"
      ],
      [
        "三",
        "个"
      ],
      [
        "这",
        "里"
      ],
      [
        "兄",
        "弟"
      ],
      [
        "这",
        "等"
      ],
      [
        "宝",
        "贝"
      ],
      [
        "今",
        "日"
      ],
      [
        "我",
        "等"
      ],
      [
        "听",
        "得"
      ],
      [
        "行者",
        "笑道"
      ],
      [
        "是",
        "我"
      ],
      [
        "那",
        "个"
      ],
      [
        "也",
        "不"
      ],
      [
        "上",
        "前"
      ],
      [
        "在",
        "此"
      ],
      [
        "来",
        "了"
      ],
      [
        "取",
        "经"
      ],
      [
        "却",
        "说"
      ],
      [
        "你",
        "看"
      ],
      [
        "如",
        "今"
      ],
      [
        "去",
        "了"
      ],
      [
        "这",
        "一"
      ],
      [
        "只",
        "见"
      ],
      [
        "这",
        "般"
      ],
      [
        "吃",
        "了"
      ],
      [
        "怎",
        "的"
      ],
      [
        "只",
        "见那"
      ],
      [
        "孙",
        "行者"
      ],
      [
        "起",
        "来"
      ],
      [
        "西",
        "天"
      ],
      [
        "铁",
        "棒"
      ],
      [
        "那",
        "老"
      ],
      [
        "与",
        "我"
      ],
      [
        "不",
        "住"
      ],
      [
        "认",
        "得"
      ],
      [
        "你",
        "这"
      ],
      [
        "天",
        "王"
      ],
      [
        "不",
        "要"
      ],
      [
        "来",
        "的"
      ],
      [
        "龙",
        "王"
      ],
      [
        "妖",
        "怪"
      ],
      [
        "就",
        "是"
      ],
      [
        "师",
        "徒"
      ],
      [
        "东",
        "土"
      ],
      [
        "太",
        "子"
      ],
      [
        "果",
        "然"
      ],
      [
        "见",
        "他"
      ],
      [
        "如",
        "来"
      ],
      [
        "我",
        "师父"
      ],
      [
        "不",
        "能"
      ],
      [
        "进",
        "去"
      ],
      [
        "性",
        "命"
      ],
      [
        "有",
        "些"
      ],
      [
        "他",
        "的"
      ],
      [
        "孙",
        "大圣"
      ],
      [
        "我",
        "的"
      ],
      [
        "老",
        "爷"
      ],
      [
        "他",
        "一"
      ],
      [
        "观",
        "看"
      ],
      [
        "公",
        "主"
      ],
      [
        "神",
        "通"
      ],
      [
        "那",
        "呆子"
      ],
      [
        "沙僧",
        "道"
      ],
      [
        "不",
        "见"
      ],
      [
        "人",
        "家"
      ],
      [
        "妖",
        "魔"
      ],
      [
        "变",
        "作"
      ],
      [
        "玉",
        "帝"
      ],
      [
        "你",
        "们"
      ],
      [
        "弟",
        "子"
      ],
      [
        "有",
        "个"
      ],
      [
        "猴",
        "王"
      ],
      [
        "得",
        "那"
      ],
      [
        "哥",
        "哥"
      ],
      [
        "教",
        "他"
      ],
      [
        "土",
        "地"
      ],
      [
        "在",
        "那"
      ],
      [
        "问",
        "道"
      ],
      [
        "道",
        "士"
      ],
      [
        "师",
        "兄"
      ],
      [
        "门",
        "外"
      ],
      [
        "一",
        "齐"
      ],
      [
        "欢",
        "喜"
      ],
      [
        "乃",
        "是"
      ],
      [
        "妖",
        "王"
      ],
      [
        "都",
        "是"
      ],
      [
        "在",
        "那里"
      ],
      [
        "贫",
        "僧"
      ],
      [
        "云",
        "头"
      ],
      [
        "行",
        "李"
      ],
      [
        "太",
        "宗"
      ],
      [
        "陛",
        "下"
      ],
      [
        "一个",
        "个"
      ],
      [
        "怎",
        "生"
      ],
      [
        "圣",
        "僧"
      ],
      [
        "多",
        "少"
      ],
      [
        "金",
        "箍"
      ],
      [
        "闻",
        "得"
      ],
      [
        "空",
        "中"
      ],
      [
        "走",
        "了"
      ],
      [
        "那",
        "妖精"
      ],
      [
        "做",
        "个"
      ],
      [
        "爷",
        "爷"
      ],
      [
        "众",
        "僧"
      ],
      [
        "兵",
        "器"
      ],
      [
        "二",
        "十"
      ],
      [
        "来",
        "也"
      ],
      [
        "模",
        "样"
      ],
      [
        "不",
        "好"
      ],
      [
        "不",
        "题"
      ],
      [
        "几",
        "个"
      ],
      [
        "心",
        "中"
      ],
      [
        "想",
        "是"
      ],
      [
        "的",
        "是"
      ],
      [
        "老",
        "者"
      ],
      [
        "袈",
        "裟"
      ],
      [
        "如",
        "此"
      ],
      [
        "十",
        "分"
      ],
      [
        "叫",
        "做"
      ],
      [
        "变",
        "化"
      ],
      [
        "你",
        "怎么"
      ],
      [
        "多",
        "时"
      ],
      [
        "却",
        "又"
      ],
      [
        "只",
        "得"
      ],
      [
        "看",
        "见"
      ],
      [
        "到",
        "此"
      ],
      [
        "身",
        "一"
      ],
      [
        "那",
        "些"
      ],
      [
        "你",
        "是"
      ],
      [
        "出",
        "去"
      ],
      [
        "魔",
        "王"
      ],
      [
        "我",
        "也"
      ],
      [
        "他",
        "就"
      ],
      [
        "手",
        "段"
      ],
      [
        "看",
        "看"
      ],
      [
        "近",
        "前"
      ],
      [
        "大",
        "仙"
      ],
      [
        "里",
        "面"
      ],
      [
        "了",
        "他"
      ],
      [
        "娘",
        "娘"
      ],
      [
        "一",
        "条"
      ],
      [
        "不",
        "可"
      ],
      [
        "小",
        "的"
      ],
      [
        "收",
        "了"
      ],
      [
        "到",
        "了"
      ],
      [
        "三",
        "十"
      ],
      [
        "衣",
        "服"
      ],
      [
        "骂",
        "道"
      ],
      [
        "些",
        "儿"
      ],
      [
        "女",
        "子"
      ],
      [
        "一",
        "般"
      ],
      [
        "西",
        "方"
      ],
      [
        "吩",
        "咐"
      ],
      [
        "大",
        "唐"
      ],
      [
        "打",
        "死"
      ],
      [
        "齐",
        "天"
      ],
      [
        "你",
        "去"
      ],
      [
        "猪",
        "八戒"
      ],
      [
        "师徒",
        "们"
      ],
      [
        "仔",
        "细"
      ],
      [
        "孙",
        "悟空"
      ],
      [
        "菩萨",
        "道"
      ],
      [
        "他",
        "两个"
      ],
      [
        "你",
        "的"
      ],
      [
        "去",
        "也"
      ],
      [
        "叫",
        "声"
      ],
      [
        "左",
        "右"
      ],
      [
        "金箍",
        "棒"
      ],
      [
        "了",
        "我"
      ],
      [
        "喜",
        "道"
      ],
      [
        "喝",
        "道"
      ],
      [
        "唐僧",
        "道"
      ],
      [
        "原来",
        "是"
      ],
      [
        "大",
        "小"
      ],
      [
        "所",
        "以"
      ],
      [
        "把",
        "那"
      ],
      [
        "老",
        "魔"
      ],
      [
        "只",
        "听得"
      ],
      [
        "听",
        "见"
      ],
      [
        "奈",
        "何"
      ],
      [
        "晓",
        "得"
      ],
      [
        "言",
        "语"
      ],
      [
        "去",
        "罢"
      ],
      [
        "四",
        "众"
      ],
      [
        "天",
        "宫"
      ],
      [
        "我",
        "这"
      ],
      [
        "一",
        "把"
      ],
      [
        "观",
        "音"
      ],
      [
        "安",
        "排"
      ],
      [
        "被",
        "他"
      ],
      [
        "关",
        "文"
      ],
      [
        "叩",
        "头"
      ],
      [
        "好",
        "大圣"
      ],
      [
        "故",
        "此"
      ],
      [
        "方",
        "才"
      ],
      [
        "洞",
        "里"
      ],
      [
        "看",
        "时"
      ],
      [
        "真个",
        "是"
      ],
      [
        "去",
        "来"
      ],
      [
        "拜",
        "佛"
      ],
      [
        "有",
        "何"
      ],
      [
        "钉",
        "钯"
      ],
      [
        "三",
        "人"
      ],
      [
        "五",
        "百"
      ],
      [
        "变",
        "做"
      ],
      [
        "我",
        "是"
      ],
      [
        "拿",
        "住"
      ],
      [
        "高",
        "叫道"
      ],
      [
        "上",
        "有"
      ],
      [
        "有",
        "甚"
      ],
      [
        "毫",
        "毛"
      ],
      [
        "一",
        "座"
      ],
      [
        "取",
        "出"
      ],
      [
        "而",
        "去"
      ],
      [
        "一",
        "时"
      ],
      [
        "也",
        "罢"
      ],
      [
        "却",
        "才"
      ],
      [
        "却",
        "不"
      ],
      [
        "听",
        "说"
      ],
      [
        "当",
        "时"
      ],
      [
        "若",
        "是"
      ],
      [
        "走",
        "路"
      ],
      [
        "礼",
        "道"
      ],
      [
        "那",
        "国王"
      ],
      [
        "你看",
        "他"
      ],
      [
        "那",
        "长老"
      ],
      [
        "不",
        "尽"
      ],
      [
        "且",
        "听"
      ],
      [
        "兢",
        "兢"
      ],
      [
        "出",
        "门"
      ],
      [
        "回",
        "头"
      ],
      [
        "妖",
        "邪"
      ],
      [
        "战",
        "兢兢"
      ],
      [
        "却",
        "是"
      ],
      [
        "明",
        "日"
      ],
      [
        "许",
        "多"
      ],
      [
        "齐天",
        "大圣"
      ],
      [
        "二",
        "人"
      ],
      [
        "分",
        "解"
      ],
      [
        "抬",
        "头"
      ],
      [
        "来",
        "我"
      ],
      [
        "此",
        "时"
      ],
      [
        "汝",
        "等"
      ],
      [
        "下",
        "回"
      ],
      [
        "之",
        "事"
      ],
      [
        "孩",
        "儿"
      ],
      [
        "扯",
        "住"
      ],
      [
        "毕",
        "竟"
      ],
      [
        "递",
        "与"
      ],
      [
        "且听",
        "下回"
      ],
      [
        "且听下回",
        "分解"
      ],
      [
        "也",
        "是"
      ],
      [
        "你",
        "且"
      ],
      [
        "径",
        "至"
      ],
      [
        "老",
        "君"
      ],
      [
        "降",
        "妖"
      ],
      [
        "三",
        "年"
      ],
      [
        "在",
        "地"
      ],
      [
        "筋",
        "斗"
      ],
      [
        "一",
        "只"
      ],
      [
        "之",
        "下"
      ],
      [
        "回",
        "来"
      ],
      [
        "报",
        "道"
      ],
      [
        "下",
        "来"
      ],
      [
        "口",
        "里"
      ],
      [
        "忍",
        "不住"
      ],
      [
        "把",
        "他"
      ],
      [
        "特",
        "来"
      ],
      [
        "还",
        "有"
      ],
      [
        "人",
        "道"
      ],
      [
        "唐",
        "王"
      ],
      [
        "慌",
        "得"
      ],
      [
        "拿",
        "了"
      ],
      [
        "一",
        "日"
      ],
      [
        "放",
        "心"
      ],
      [
        "沙",
        "和尚"
      ],
      [
        "行者",
        "闻言"
      ],
      [
        "却说",
        "那"
      ],
      [
        "出",
        "家"
      ],
      [
        "头",
        "上"
      ],
      [
        "奏",
        "道"
      ],
      [
        "收",
        "拾"
      ],
      [
        "本",
        "事"
      ],
      [
        "小的",
        "们"
      ],
      [
        "中",
        "间"
      ],
      [
        "坐",
        "在"
      ],
      [
        "有",
        "人"
      ],
      [
        "有",
        "一个"
      ],
      [
        "皇",
        "帝"
      ],
      [
        "往",
        "西天"
      ],
      [
        "玄",
        "奘"
      ],
      [
        "罢",
        "了"
      ],
      [
        "葫",
        "芦"
      ],
      [
        "言",
        "道"
      ],
      [
        "门",
        "前"
      ],
      [
        "哥",
        "啊"
      ],
      [
        "四",
        "十"
      ],
      [
        "是",
        "那"
      ],
      [
        "老",
        "猪"
      ],
      [
        "谢",
        "了"
      ],
      [
        "他",
        "却"
      ],
      [
        "又",
        "见"
      ],
      [
        "壁",
        "厢"
      ],
      [
        "未",
        "曾"
      ],
      [
        "花",
        "果"
      ],
      [
        "造",
        "化"
      ],
      [
        "一",
        "口"
      ],
      [
        "惊",
        "道"
      ],
      [
        "不",
        "肯"
      ],
      [
        "只",
        "管"
      ],
      [
        "忽",
        "见"
      ],
      [
        "路",
        "上"
      ],
      [
        "那",
        "妖"
      ],
      [
        "了",
        "你"
      ],
      [
        "佛",
        "祖"
      ],
      [
        "回",
        "去"
      ],
      [
        "开",
        "门"
      ],
      [
        "教",
        "我"
      ],
      [
        "此",
        "言"
      ],
      [
        "白",
        "马"
      ],
      [
        "的",
        "和尚"
      ],
      [
        "天",
        "地"
      ],
      [
        "揭",
        "谛"
      ],
      [
        "求",
        "经"
      ],
      [
        "的",
        "一声"
      ],
      [
        "问",
        "他"
      ],
      [
        "东",
        "西"
      ],
      [
        "多",
        "官"
      ],
      [
        "老",
        "妖"
      ],
      [
        "金",
        "光"
      ],
      [
        "门",
        "里"
      ],
      [
        "毕竟",
        "不知"
      ],
      [
        "一",
        "则"
      ],
      [
        "却",
        "也"
      ],
      [
        "有",
        "三"
      ],
      [
        "罗",
        "刹"
      ],
      [
        "诗",
        "曰"
      ],
      [
        "说",
        "话"
      ],
      [
        "老者",
        "道"
      ],
      [
        "受",
        "用"
      ],
      [
        "猴",
        "子"
      ],
      [
        "礼",
        "拜"
      ],
      [
        "这",
        "大圣"
      ],
      [
        "身一",
        "变"
      ],
      [
        "不",
        "期"
      ],
      [
        "不",
        "觉"
      ],
      [
        "你",
        "不"
      ],
      [
        "可",
        "怜"
      ],
      [
        "御",
        "弟"
      ],
      [
        "磕",
        "头"
      ],
      [
        "赶",
        "上"
      ],
      [
        "八戒",
        "笑道"
      ],
      [
        "唤",
        "做"
      ],
      [
        "唬",
        "得"
      ],
      [
        "在",
        "这里"
      ],
      [
        "怪",
        "物"
      ],
      [
        "摇",
        "身一变"
      ],
      [
        "现",
        "了"
      ],
      [
        "着",
        "他"
      ],
      [
        "还",
        "不"
      ],
      [
        "雷",
        "音"
      ],
      [
        "花果",
        "山"
      ],
      [
        "南",
        "无"
      ],
      [
        "把",
        "我"
      ],
      [
        "文",
        "武"
      ],
      [
        "用",
        "手"
      ],
      [
        "着",
        "一个"
      ],
      [
        "道",
        "人"
      ],
      [
        "金",
        "星"
      ],
      [
        "合",
        "掌"
      ],
      [
        "咒",
        "语"
      ],
      [
        "更",
        "无"
      ],
      [
        "祖",
        "师"
      ],
      [
        "说",
        "得"
      ],
      [
        "十",
        "二"
      ],
      [
        "厉",
        "声"
      ],
      [
        "只",
        "因"
      ],
      [
        "四",
        "个"
      ],
      [
        "跪",
        "下"
      ],
      [
        "进",
        "来"
      ],
      [
        "一",
        "根"
      ],
      [
        "下",
        "马"
      ],
      [
        "丢",
        "了"
      ],
      [
        "住",
        "了"
      ],
      [
        "先",
        "生"
      ],
      [
        "将",
        "来"
      ],
      [
        "耍",
        "子"
      ],
      [
        "身",
        "上"
      ],
      [
        "八戒",
        "沙僧"
      ],
      [
        "上",
        "来"
      ],
      [
        "众",
        "神"
      ],
      [
        "来",
        "此"
      ],
      [
        "王",
        "子"
      ],
      [
        "耳",
        "朵"
      ],
      [
        "自",
        "家"
      ],
      [
        "说",
        "是"
      ],
      [
        "那怪",
        "道"
      ],
      [
        "*",
        "*"
      ],
      [
        "他",
        "那"
      ],
      [
        "何",
        "如"
      ],
      [
        "儿",
        "子"
      ],
      [
        "哪",
        "吒"
      ],
      [
        "山",
        "中"
      ],
      [
        "常",
        "言道"
      ],
      [
        "慌",
        "了"
      ],
      [
        "方",
        "便"
      ],
      [
        "童",
        "子"
      ],
      [
        "过",
        "了"
      ],
      [
        "那",
        "和尚"
      ],
      [
        "须",
        "臾"
      ],
      [
        "下",
        "去"
      ],
      [
        "之",
        "意"
      ],
      [
        "何",
        "处"
      ],
      [
        "唐",
        "朝"
      ],
      [
        "得",
        "他"
      ],
      [
        "殿",
        "上"
      ],
      [
        "牛",
        "王"
      ],
      [
        "直",
        "至"
      ],
      [
        "精",
        "神"
      ],
      [
        "还",
        "是"
      ],
      [
        "那",
        "大圣"
      ],
      [
        "悟空",
        "道"
      ],
      [
        "东土",
        "大唐"
      ],
      [
        "不",
        "过"
      ],
      [
        "之",
        "间"
      ],
      [
        "保",
        "护"
      ],
      [
        "列",
        "位"
      ],
      [
        "广",
        "大"
      ],
      [
        "面",
        "前"
      ],
      [
        "国王",
        "道"
      ],
      [
        "为",
        "证"
      ],
      [
        "便",
        "是"
      ],
      [
        "即",
        "命"
      ],
      [
        "又",
        "见那"
      ],
      [
        "悟",
        "能"
      ],
      [
        "灵",
        "山"
      ],
      [
        "父",
        "母"
      ],
      [
        "起",
        "身"
      ],
      [
        "那里",
        "去"
      ],
      [
        "之",
        "处"
      ],
      [
        "前",
        "后"
      ],
      [
        "就",
        "打"
      ],
      [
        "我",
        "不"
      ],
      [
        "本",
        "相"
      ],
      [
        "的",
        "人"
      ],
      [
        "三藏",
        "闻言"
      ],
      [
        "传",
        "旨"
      ],
      [
        "双",
        "手"
      ],
      [
        "好",
        "歹"
      ],
      [
        "待",
        "我"
      ],
      [
        "悟",
        "净"
      ],
      [
        "扇",
        "子"
      ],
      [
        "无",
        "礼"
      ],
      [
        "此",
        "间"
      ],
      [
        "母",
        "亲"
      ],
      [
        "法",
        "力"
      ],
      [
        "看",
        "处"
      ],
      [
        "这",
        "厮"
      ],
      [
        "马",
        "匹"
      ],
      [
        "那怪",
        "物"
      ],
      [
        "不",
        "分"
      ],
      [
        "你",
        "可"
      ],
      [
        "在",
        "旁"
      ],
      [
        "我",
        "一"
      ],
      [
        "我",
        "这里"
      ],
      [
        "教",
        "你"
      ],
      [
        "无",
        "人"
      ],
      [
        "昨",
        "日"
      ],
      [
        "更",
        "不"
      ],
      [
        "真",
        "是"
      ],
      [
        "长",
        "生"
      ],
      [
        "但",
        "见"
      ],
      [
        "你",
        "这个"
      ],
      [
        "慌",
        "得那"
      ],
      [
        "是",
        "他"
      ],
      [
        "等",
        "老孙"
      ],
      [
        "长老",
        "道"
      ],
      [
        "一",
        "阵"
      ],
      [
        "下",
        "界"
      ],
      [
        "二",
        "魔"
      ],
      [
        "五",
        "十"
      ],
      [
        "在",
        "山"
      ],
      [
        "大",
        "路"
      ],
      [
        "当",
        "年"
      ],
      [
        "我",
        "去"
      ],
      [
        "把",
        "个"
      ],
      [
        "拿",
        "他"
      ],
      [
        "父",
        "王"
      ],
      [
        "群",
        "妖"
      ],
      [
        "过",
        "去"
      ],
      [
        "那",
        "厮"
      ],
      [
        "金",
        "刚"
      ],
      [
        "又",
        "有"
      ],
      [
        "打",
        "杀"
      ],
      [
        "知",
        "道"
      ],
      [
        "走",
        "出"
      ],
      [
        "闹",
        "天宫"
      ],
      [
        "驸",
        "马"
      ],
      [
        "出家",
        "人"
      ],
      [
        "不",
        "了"
      ],
      [
        "不",
        "同"
      ],
      [
        "他",
        "也"
      ],
      [
        "包",
        "袱"
      ],
      [
        "千",
        "里"
      ],
      [
        "南",
        "海"
      ],
      [
        "在",
        "手"
      ],
      [
        "怪",
        "道"
      ],
      [
        "惊",
        "动"
      ],
      [
        "我",
        "就"
      ],
      [
        "没",
        "有"
      ],
      [
        "相",
        "见"
      ],
      [
        "祥",
        "云"
      ],
      [
        "躬",
        "身"
      ],
      [
        "那",
        "行者"
      ],
      [
        "雷",
        "公"
      ],
      [
        "上",
        "一"
      ],
      [
        "下",
        "拜"
      ],
      [
        "不",
        "动"
      ],
      [
        "洞",
        "口"
      ],
      [
        "神",
        "僧"
      ],
      [
        "芭",
        "蕉"
      ],
      [
        "转",
        "身"
      ],
      [
        "这",
        "是"
      ],
      [
        "不",
        "识"
      ],
      [
        "不",
        "多时"
      ],
      [
        "但",
        "见那"
      ],
      [
        "你",
        "既"
      ],
      [
        "你",
        "说"
      ],
      [
        "使",
        "个"
      ],
      [
        "后",
        "面"
      ],
      [
        "婆",
        "婆"
      ],
      [
        "开",
        "了"
      ],
      [
        "法",
        "师"
      ],
      [
        "不知",
        "是"
      ],
      [
        "神通",
        "广大"
      ],
      [
        "了",
        "一个"
      ],
      [
        "四",
        "大"
      ],
      [
        "烦",
        "恼"
      ],
      [
        "祥",
        "光"
      ],
      [
        "答",
        "应"
      ],
      [
        "胡",
        "说"
      ],
      [
        "长",
        "安"
      ],
      [
        "马",
        "上"
      ],
      [
        "了一",
        "遍"
      ],
      [
        "一",
        "件"
      ],
      [
        "一",
        "路"
      ],
      [
        "他",
        "是"
      ],
      [
        "你",
        "却"
      ],
      [
        "倒",
        "换"
      ],
      [
        "做",
        "了"
      ],
      [
        "半",
        "空中"
      ],
      [
        "本",
        "是"
      ],
      [
        "老",
        "儿"
      ],
      [
        "话",
        "说"
      ],
      [
        "不",
        "必"
      ],
      [
        "之",
        "言"
      ],
      [
        "修",
        "行"
      ],
      [
        "又",
        "来"
      ],
      [
        "就",
        "要"
      ],
      [
        "山",
        "门"
      ],
      [
        "我",
        "来"
      ],
      [
        "正",
        "果"
      ],
      [
        "自",
        "在"
      ],
      [
        "自",
        "有"
      ],
      [
        "迎",
        "接"
      ],
      [
        "这",
        "和尚"
      ],
      [
        "魔",
        "头"
      ],
      [
        "不",
        "然"
      ],
      [
        "住",
        "道"
      ],
      [
        "你",
        "还"
      ],
      [
        "你",
        "那"
      ],
      [
        "前",
        "进"
      ],
      [
        "十",
        "八"
      ],
      [
        "在",
        "空中"
      ],
      [
        "城",
        "中"
      ],
      [
        "大",
        "怒"
      ],
      [
        "天",
        "下"
      ],
      [
        "宝",
        "殿"
      ],
      [
        "得",
        "了"
      ],
      [
        "放",
        "下"
      ],
      [
        "旨",
        "意"
      ],
      [
        "有",
        "诗"
      ],
      [
        "李",
        "天王"
      ],
      [
        "着",
        "头"
      ],
      [
        "跳",
        "出"
      ],
      [
        "兄弟",
        "们"
      ],
      [
        "那老",
        "者"
      ],
      [
        "心中",
        "暗"
      ],
      [
        "一",
        "一"
      ],
      [
        "他",
        "又"
      ],
      [
        "你",
        "两个"
      ],
      [
        "坐",
        "下"
      ],
      [
        "天",
        "尊"
      ],
      [
        "寡",
        "人"
      ],
      [
        "就",
        "有"
      ],
      [
        "我",
        "说"
      ],
      [
        "我",
        "与你"
      ],
      [
        "木",
        "叉"
      ],
      [
        "果",
        "是"
      ],
      [
        "猢",
        "狲"
      ],
      [
        "脱",
        "了"
      ],
      [
        "蟠",
        "桃"
      ],
      [
        ".",
        "."
      ],
      [
        "七",
        "八"
      ],
      [
        "上",
        "马"
      ],
      [
        "他",
        "说"
      ],
      [
        "保",
        "唐僧"
      ],
      [
        "光",
        "蕊"
      ],
      [
        "出",
        "了"
      ],
      [
        "却",
        "怎么"
      ],
      [
        "唬",
        "得那"
      ],
      [
        "忽",
        "然"
      ],
      [
        "按",
        "落"
      ],
      [
        "方",
        "丈"
      ],
      [
        "此",
        "处"
      ],
      [
        "泪",
        "道"
      ],
      [
        "灵",
        "霄"
      ],
      [
        "着",
        "一"
      ],
      [
        "神",
        "仙"
      ],
      [
        "老",
        "师父"
      ],
      [
        "莫",
        "想"
      ],
      [
        "都",
        "在"
      ],
      [
        "都",
        "来"
      ],
      [
        "大圣",
        "道"
      ],
      [
        "你看",
        "那"
      ],
      [
        "厉声",
        "高叫道"
      ],
      [
        "与",
        "沙僧"
      ],
      [
        "到",
        "那"
      ],
      [
        "去",
        "处"
      ],
      [
        "只",
        "有"
      ],
      [
        "唐",
        "三藏"
      ],
      [
        "天",
        "门"
      ],
      [
        "如",
        "意"
      ],
      [
        "宝",
        "杖"
      ],
      [
        "打",
        "他"
      ],
      [
        "泼",
        "猴"
      ],
      [
        "洞",
        "中"
      ],
      [
        "皈",
        "依"
      ],
      [
        "若",
        "不"
      ],
      [
        "迎",
        "着"
      ],
      [
        "这",
        "行者"
      ],
      [
        "这一",
        "场"
      ],
      [
        "有诗",
        "为证"
      ],
      [
        "两",
        "边"
      ],
      [
        "之",
        "人"
      ],
      [
        "了",
        "去"
      ],
      [
        "你",
        "也"
      ],
      [
        "却",
        "不是"
      ],
      [
        "呵",
        "呵"
      ],
      [
        "和",
        "你"
      ],
      [
        "外",
        "面"
      ],
      [
        "大",
        "惊道"
      ],
      [
        "干",
        "净"
      ],
      [
        "弼",
        "马"
      ],
      [
        "我",
        "老孙"
      ],
      [
        "时",
        "辰"
      ],
      [
        "有",
        "此"
      ],
      [
        "果",
        "子"
      ],
      [
        "箍",
        "儿"
      ],
      [
        "罗",
        "汉"
      ],
      [
        "路",
        "旁"
      ],
      [
        "轻",
        "轻"
      ],
      [
        "饶",
        "你"
      ],
      [
        "驾",
        "云"
      ],
      [
        "那里",
        "来的"
      ],
      [
        "小妖",
        "道"
      ],
      [
        "一",
        "顿"
      ],
      [
        "为",
        "何"
      ],
      [
        "二",
        "郎"
      ],
      [
        "几",
        "时"
      ],
      [
        "前",
        "面"
      ],
      [
        "在",
        "他"
      ],
      [
        "就",
        "走"
      ],
      [
        "心",
        "惊"
      ],
      [
        "想",
        "道"
      ],
      [
        "慈",
        "悲"
      ],
      [
        "打",
        "个"
      ],
      [
        "既",
        "如此"
      ],
      [
        "水",
        "帘"
      ],
      [
        "看",
        "了"
      ],
      [
        "着",
        "那"
      ],
      [
        "谢",
        "恩"
      ],
      [
        "过",
        "来"
      ],
      [
        "师父",
        "你"
      ],
      [
        "筋斗",
        "云"
      ],
      [
        "三",
        "千"
      ],
      [
        "不",
        "打"
      ],
      [
        "且",
        "莫"
      ],
      [
        "之",
        "时"
      ],
      [
        "仙",
        "气"
      ],
      [
        "公",
        "公"
      ],
      [
        "判",
        "官"
      ],
      [
        "又",
        "问"
      ],
      [
        "天",
        "色"
      ],
      [
        "好",
        "杀"
      ],
      [
        "孽",
        "畜"
      ],
      [
        "将",
        "身一"
      ],
      [
        "幌",
        "一"
      ],
      [
        "得",
        "个"
      ],
      [
        "得",
        "我"
      ],
      [
        "日",
        "月"
      ],
      [
        "生",
        "得"
      ],
      [
        "的",
        "道"
      ],
      [
        "解",
        "了"
      ],
      [
        "金",
        "睛"
      ],
      [
        "金",
        "银"
      ],
      [
        "正是",
        "那"
      ],
      [
        "五百",
        "年"
      ],
      [
        "万",
        "望"
      ],
      [
        "乾",
        "坤"
      ],
      [
        "嘴",
        "脸"
      ],
      [
        "天",
        "晚"
      ],
      [
        "将",
        "他"
      ],
      [
        "我",
        "把"
      ],
      [
        "是",
        "好"
      ],
      [
        "有",
        "多少"
      ],
      [
        "狂",
        "风"
      ],
      [
        "相",
        "貌"
      ],
      [
        "看",
        "他"
      ],
      [
        "真",
        "经"
      ],
      [
        "虽",
        "是"
      ],
      [
        "还",
        "我"
      ],
      [
        "那",
        "时"
      ],
      [
        "阎",
        "王"
      ],
      [
        "老魔",
        "道"
      ],
      [
        "观音",
        "菩萨"
      ],
      [
        "一",
        "定"
      ],
      [
        "不",
        "来"
      ],
      [
        "了",
        "个"
      ],
      [
        "你",
        "师父"
      ],
      [
        "动",
        "手"
      ],
      [
        "半",
        "空"
      ],
      [
        "只",
        "叫"
      ],
      [
        "各",
        "各"
      ],
      [
        "吆",
        "喝"
      ],
      [
        "寺",
        "里"
      ],
      [
        "将",
        "起来"
      ],
      [
        "小",
        "龙"
      ],
      [
        "小",
        "和尚"
      ],
      [
        "怕",
        "他"
      ],
      [
        "放",
        "在"
      ],
      [
        "死",
        "了"
      ],
      [
        "殿",
        "下"
      ],
      [
        "火",
        "焰"
      ],
      [
        "真",
        "君"
      ],
      [
        "身",
        "法"
      ],
      [
        "有一",
        "座"
      ],
      [
        "欢喜",
        "道"
      ],
      [
        "弼马",
        "温"
      ],
      [
        "万",
        "岁"
      ],
      [
        "不",
        "消"
      ],
      [
        "不",
        "用"
      ],
      [
        "与",
        "那"
      ],
      [
        "主",
        "公"
      ],
      [
        "了",
        "几"
      ],
      [
        "他",
        "们"
      ],
      [
        "僧",
        "人"
      ],
      [
        "出",
        "城"
      ],
      [
        "化",
        "斋"
      ],
      [
        "变",
        "做个"
      ],
      [
        "可",
        "以"
      ],
      [
        "员",
        "外"
      ],
      [
        "天",
        "兵"
      ],
      [
        "小",
        "儿"
      ],
      [
        "就",
        "不"
      ],
      [
        "就",
        "如"
      ],
      [
        "扑",
        "的"
      ],
      [
        "明",
        "白"
      ],
      [
        "星",
        "官"
      ],
      [
        "樵",
        "子"
      ],
      [
        "这",
        "些"
      ],
      [
        "师父",
        "啊"
      ],
      [
        "徒弟",
        "啊"
      ],
      [
        "取经",
        "的"
      ],
      [
        "与",
        "八戒"
      ],
      [
        "众",
        "妖"
      ],
      [
        "众",
        "官"
      ],
      [
        "伯",
        "钦"
      ],
      [
        "你",
        "要"
      ],
      [
        "先",
        "锋"
      ],
      [
        "其",
        "实"
      ],
      [
        "利",
        "害"
      ],
      [
        "原",
        "是"
      ],
      [
        "又",
        "不"
      ],
      [
        "天",
        "师"
      ],
      [
        "天",
        "明"
      ],
      [
        "女",
        "王"
      ],
      [
        "将",
        "那"
      ],
      [
        "慌",
        "忙"
      ],
      [
        "是",
        "甚么"
      ],
      [
        "棍",
        "子"
      ],
      [
        "正",
        "在"
      ],
      [
        "穿",
        "了"
      ],
      [
        "老",
        "师"
      ],
      [
        "腰",
        "间"
      ],
      [
        "西",
        "去"
      ],
      [
        "赌",
        "斗"
      ],
      [
        "门",
        "上"
      ],
      [
        "拜佛",
        "求经"
      ],
      [
        "倒换",
        "关文"
      ],
      [
        "三",
        "日"
      ],
      [
        "下",
        "一"
      ],
      [
        "且",
        "休"
      ],
      [
        "丞",
        "相"
      ],
      [
        "之",
        "上"
      ],
      [
        "依",
        "言"
      ],
      [
        "只",
        "怕"
      ],
      [
        "在",
        "马上"
      ],
      [
        "大",
        "哥"
      ],
      [
        "快",
        "去"
      ],
      [
        "怎",
        "敢"
      ],
      [
        "抽",
        "身"
      ],
      [
        "捻",
        "着"
      ],
      [
        "朝",
        "上"
      ],
      [
        "树",
        "上"
      ],
      [
        "比",
        "丘"
      ],
      [
        "清",
        "风"
      ],
      [
        "说",
        "不了"
      ],
      [
        "那",
        "女子"
      ],
      [
        "不",
        "成"
      ],
      [
        "个",
        "大"
      ],
      [
        "之",
        "内"
      ],
      [
        "之",
        "物"
      ],
      [
        "十",
        "万"
      ],
      [
        "千",
        "万"
      ],
      [
        "半",
        "个"
      ],
      [
        "向",
        "前"
      ],
      [
        "大",
        "海"
      ],
      [
        "天",
        "上"
      ],
      [
        "女",
        "儿"
      ],
      [
        "妇",
        "人"
      ],
      [
        "山",
        "坡"
      ],
      [
        "快",
        "早"
      ],
      [
        "拿",
        "出"
      ],
      [
        "挑",
        "着"
      ],
      [
        "有",
        "几"
      ],
      [
        "有",
        "甚么"
      ],
      [
        "没",
        "奈何"
      ],
      [
        "直",
        "裰"
      ],
      [
        "第",
        "二"
      ],
      [
        "贤",
        "弟"
      ],
      [
        "趁",
        "早"
      ],
      [
        "这",
        "场"
      ],
      [
        "银",
        "子"
      ],
      [
        "闻",
        "说"
      ],
      [
        "随",
        "后"
      ],
      [
        "一个",
        "是"
      ],
      [
        "等我",
        "去"
      ],
      [
        "众僧",
        "道"
      ],
      [
        "有诗为证",
        "诗曰"
      ],
      [
        "。",
        "’"
      ],
      [
        "一",
        "场"
      ],
      [
        "不",
        "瞒"
      ],
      [
        "之",
        "恩"
      ],
      [
        "人",
        "参"
      ],
      [
        "伏",
        "侍"
      ],
      [
        "何",
        "也"
      ],
      [
        "你",
        "若"
      ],
      [
        "六",
        "十"
      ],
      [
        "古",
        "人"
      ],
      [
        "叫",
        "他"
      ],
      [
        "名",
        "字"
      ],
      [
        "后",
        "边"
      ],
      [
        "大",
        "闹天宫"
      ],
      [
        "想",
        "必"
      ],
      [
        "把",
        "唐僧"
      ],
      [
        "斋",
        "僧"
      ],
      [
        "正",
        "行"
      ],
      [
        "父",
        "子"
      ],
      [
        "还",
        "要"
      ],
      [
        "那",
        "师父"
      ],
      [
        "钵",
        "盂"
      ],
      [
        "了一",
        "声"
      ],
      [
        "取经",
        "人"
      ],
      [
        "果然",
        "是"
      ],
      [
        "不好",
        "了"
      ],
      [
        "按落",
        "云头"
      ],
      [
        "水帘",
        "洞"
      ],
      [
        "一",
        "行"
      ],
      [
        "下",
        "云头"
      ],
      [
        "不",
        "在"
      ],
      [
        "之",
        "中"
      ],
      [
        "之",
        "后"
      ],
      [
        "了",
        "三"
      ],
      [
        "了",
        "这"
      ],
      [
        "你",
        "来"
      ],
      [
        "元",
        "帅"
      ],
      [
        "光",
        "明"
      ],
      [
        "原",
        "身"
      ],
      [
        "口",
        "仙气"
      ],
      [
        "只",
        "为"
      ],
      [
        "天",
        "竺"
      ],
      [
        "尽",
        "皆"
      ],
      [
        "山",
        "神"
      ],
      [
        "得",
        "胜"
      ],
      [
        "放",
        "了"
      ],
      [
        "来",
        "到"
      ],
      [
        "点",
        "头"
      ],
      [
        "牵",
        "马"
      ],
      [
        "相",
        "迎"
      ],
      [
        "着",
        "实"
      ],
      [
        "离",
        "了"
      ],
      [
        "端",
        "的"
      ],
      [
        "肚",
        "里"
      ],
      [
        "见",
        "我"
      ],
      [
        "说",
        "我"
      ],
      [
        "身",
        "子"
      ],
      [
        "那",
        "八戒"
      ],
      [
        "里",
        "边"
      ],
      [
        "魏",
        "征"
      ],
      [
        "行者",
        "又"
      ],
      [
        "土地",
        "道"
      ],
      [
        "祖师",
        "道"
      ],
      [
        "二",
        "哥"
      ],
      [
        "二",
        "百"
      ],
      [
        "五",
        "行"
      ],
      [
        "人",
        "间"
      ],
      [
        "众",
        "猴"
      ],
      [
        "因",
        "此"
      ],
      [
        "国",
        "师"
      ],
      [
        "好",
        "道"
      ],
      [
        "害",
        "怕"
      ],
      [
        "小",
        "姐"
      ],
      [
        "山",
        "上"
      ],
      [
        "师",
        "弟"
      ],
      [
        "成",
        "精"
      ],
      [
        "既",
        "是"
      ],
      [
        "是",
        "何"
      ],
      [
        "更",
        "时"
      ],
      [
        "美",
        "猴王"
      ],
      [
        "老",
        "怪"
      ],
      [
        "说",
        "出"
      ],
      [
        "远",
        "近"
      ],
      [
        "连",
        "忙"
      ],
      [
        "驿",
        "丞"
      ],
      [
        "高",
        "山"
      ],
      [
        "原来",
        "那"
      ],
      [
        "大仙",
        "道"
      ],
      [
        "叩头",
        "道"
      ],
      [
        "幌一",
        "幌"
      ],
      [
        ":",
        "‘"
      ],
      [
        "一",
        "家"
      ],
      [
        "上",
        "天"
      ],
      [
        "上",
        "界"
      ],
      [
        "不",
        "须"
      ],
      [
        "与",
        "行者"
      ],
      [
        "之",
        "外"
      ],
      [
        "之",
        "心"
      ],
      [
        "人",
        "等"
      ],
      [
        "全",
        "无"
      ],
      [
        "功",
        "曹"
      ],
      [
        "千",
        "年"
      ],
      [
        "即",
        "将"
      ],
      [
        "口",
        "中"
      ],
      [
        "只",
        "说"
      ],
      [
        "圈",
        "子"
      ],
      [
        "声",
        "音"
      ],
      [
        "妈",
        "妈"
      ],
      [
        "径",
        "入"
      ],
      [
        "必",
        "定"
      ],
      [
        "把",
        "这"
      ],
      [
        "抖",
        "擞"
      ],
      [
        "接",
        "了"
      ],
      [
        "施",
        "主"
      ],
      [
        "有",
        "理"
      ],
      [
        "百",
        "十"
      ],
      [
        "真",
        "言"
      ],
      [
        "老",
        "道"
      ],
      [
        "自",
        "然"
      ],
      [
        "若",
        "要"
      ],
      [
        "被",
        "行者"
      ],
      [
        "跪下",
        "道"
      ],
      [
        "”",
        "。"
      ],
      [
        "上",
        "下"
      ],
      [
        "不",
        "见了"
      ],
      [
        "个",
        "个"
      ],
      [
        "二",
        "来"
      ],
      [
        "他",
        "去"
      ],
      [
        "众",
        "人"
      ],
      [
        "你",
        "道"
      ],
      [
        "依",
        "然"
      ],
      [
        "倒",
        "在地"
      ],
      [
        "八",
        "百"
      ],
      [
        "即",
        "忙"
      ],
      [
        "却",
        "好"
      ],
      [
        "君",
        "王"
      ],
      [
        "听",
        "言"
      ],
      [
        "呼",
        "呼"
      ],
      [
        "在",
        "我"
      ],
      [
        "外",
        "公"
      ],
      [
        "将",
        "去"
      ],
      [
        "得",
        "好"
      ],
      [
        "忽",
        "听得"
      ],
      [
        "急",
        "纵"
      ],
      [
        "战",
        "战兢兢"
      ],
      [
        "打",
        "破"
      ],
      [
        "披",
        "挂"
      ],
      [
        "拿",
        "来"
      ],
      [
        "挑",
        "担"
      ],
      [
        "是",
        "甚"
      ],
      [
        "此",
        "山"
      ],
      [
        "洞",
        "门"
      ],
      [
        "真",
        "假"
      ],
      [
        "祸",
        "事"
      ],
      [
        "莫",
        "要"
      ],
      [
        "被",
        "我"
      ],
      [
        "郡",
        "侯"
      ],
      [
        "阴",
        "司"
      ],
      [
        "行者",
        "暗"
      ],
      [
        "扯住",
        "道"
      ],
      [
        "一只",
        "手"
      ],
      [
        "一",
        "下"
      ],
      [
        "一",
        "处"
      ],
      [
        "七",
        "十"
      ],
      [
        "上",
        "去"
      ],
      [
        "下",
        "手"
      ],
      [
        "不",
        "会"
      ],
      [
        "且",
        "不"
      ],
      [
        "之",
        "声"
      ],
      [
        "之",
        "类"
      ],
      [
        "之",
        "罪"
      ],
      [
        "二",
        "则"
      ],
      [
        "他",
        "来"
      ],
      [
        "你",
        "就"
      ],
      [
        "你",
        "不知"
      ],
      [
        "几",
        "年"
      ],
      [
        "前",
        "来"
      ],
      [
        "却",
        "就"
      ],
      [
        "可",
        "是"
      ],
      [
        "吹",
        "口仙气"
      ],
      [
        "夫",
        "妻"
      ],
      [
        "安",
        "歇"
      ],
      [
        "宝",
        "剑"
      ],
      [
        "对",
        "众"
      ],
      [
        "将",
        "进去"
      ],
      [
        "我",
        "自"
      ],
      [
        "找",
        "寻"
      ],
      [
        "有",
        "四"
      ],
      [
        "满",
        "心"
      ],
      [
        "牛",
        "魔王"
      ],
      [
        "王",
        "母"
      ],
      [
        "皇",
        "后"
      ],
      [
        "花",
        "园"
      ],
      [
        "莫",
        "念"
      ],
      [
        "话",
        "儿"
      ],
      [
        "进",
        "城"
      ],
      [
        "那",
        "妖王"
      ],
      [
        "那",
        "魔王"
      ],
      [
        "阴",
        "阳"
      ],
      [
        "霎",
        "时"
      ],
      [
        "须",
        "是"
      ],
      [
        "不",
        "着"
      ],
      [
        "不",
        "许"
      ],
      [
        "也",
        "有"
      ],
      [
        "关",
        "了"
      ],
      [
        "再",
        "去"
      ],
      [
        "即",
        "便"
      ],
      [
        "即",
        "时"
      ],
      [
        "启",
        "奏"
      ],
      [
        "大",
        "家"
      ],
      [
        "大",
        "喜道"
      ],
      [
        "急",
        "急"
      ],
      [
        "才",
        "是"
      ],
      [
        "打",
        "开"
      ],
      [
        "把",
        "门"
      ],
      [
        "救",
        "我"
      ],
      [
        "施",
        "礼道"
      ],
      [
        "无",
        "事"
      ],
      [
        "有",
        "五"
      ],
      [
        "来",
        "请"
      ],
      [
        "武",
        "艺"
      ],
      [
        "莫",
        "说"
      ],
      [
        "计",
        "较"
      ],
      [
        "记",
        "得"
      ],
      [
        "这一",
        "去"
      ],
      [
        "一",
        "人"
      ],
      [
        "一",
        "拥"
      ],
      [
        "一",
        "壁厢"
      ],
      [
        "万",
        "里"
      ],
      [
        "三",
        "位"
      ],
      [
        "上",
        "面"
      ],
      [
        "不",
        "吃"
      ],
      [
        "买",
        "卖"
      ],
      [
        "但",
        "只是"
      ],
      [
        "在",
        "里面"
      ],
      [
        "头",
        "来"
      ],
      [
        "好",
        "处"
      ],
      [
        "弟",
        "兄"
      ],
      [
        "往",
        "来"
      ],
      [
        "我",
        "才"
      ],
      [
        "手",
        "下"
      ],
      [
        "明",
        "月"
      ],
      [
        "欣",
        "然"
      ],
      [
        "流",
        "沙"
      ],
      [
        "滚",
        "滚"
      ],
      [
        "着",
        "马"
      ],
      [
        "粗",
        "细"
      ],
      [
        "而",
        "来"
      ],
      [
        "胜",
        "负"
      ],
      [
        "虽",
        "然"
      ],
      [
        "要",
        "吃"
      ],
      [
        "诀",
        "念"
      ],
      [
        "这",
        "妖精"
      ],
      [
        "这",
        "正是"
      ],
      [
        "遇",
        "着"
      ],
      [
        "那",
        "两个"
      ],
      [
        "部",
        "洲"
      ],
      [
        "金",
        "銮"
      ],
      [
        "问",
        "你"
      ],
      [
        "顶",
        "上"
      ],
      [
        "现了",
        "本相"
      ],
      [
        "古人",
        "云"
      ],
      [
        "一",
        "会"
      ],
      [
        "一",
        "百"
      ],
      [
        "一",
        "部"
      ],
      [
        "上",
        "殿"
      ],
      [
        "上",
        "西天"
      ],
      [
        "也",
        "不曾"
      ],
      [
        "了",
        "师父"
      ],
      [
        "五",
        "方"
      ],
      [
        "件",
        "宝贝"
      ],
      [
        "何",
        "来"
      ],
      [
        "你",
        "家"
      ],
      [
        "入",
        "里面"
      ],
      [
        "冲",
        "撞"
      ],
      [
        "决",
        "不"
      ],
      [
        "去",
        "得"
      ],
      [
        "国",
        "丈"
      ],
      [
        "大",
        "胆"
      ],
      [
        "天",
        "河"
      ],
      [
        "女",
        "婿"
      ],
      [
        "容",
        "易"
      ],
      [
        "将",
        "此"
      ],
      [
        "必",
        "然"
      ],
      [
        "悄",
        "悄"
      ],
      [
        "朝",
        "天"
      ],
      [
        "正",
        "说"
      ],
      [
        "渐",
        "渐"
      ],
      [
        "玉",
        "皇"
      ],
      [
        "现",
        "出"
      ],
      [
        "白",
        "玉"
      ],
      [
        "相",
        "持"
      ],
      [
        "看",
        "守"
      ],
      [
        "知",
        "之"
      ],
      [
        "纷",
        "纷"
      ],
      [
        "脱",
        "身"
      ],
      [
        "英",
        "雄"
      ],
      [
        "说",
        "道"
      ],
      [
        "诸",
        "天"
      ],
      [
        "那",
        "一"
      ],
      [
        "长",
        "嘴"
      ],
      [
        "门",
        "来"
      ],
      [
        "行者",
        "见了"
      ],
      [
        "雷音",
        "寺"
      ],
      [
        "箍儿",
        "咒"
      ],
      [
        ";",
        "《"
      ],
      [
        "不",
        "上"
      ],
      [
        "不",
        "如"
      ],
      [
        "与",
        "众"
      ],
      [
        "人",
        "的"
      ],
      [
        "低",
        "头"
      ],
      [
        "供",
        "养"
      ],
      [
        "便",
        "罢"
      ],
      [
        "切",
        "莫"
      ],
      [
        "前",
        "日"
      ],
      [
        "只",
        "在"
      ],
      [
        "君",
        "臣"
      ],
      [
        "大",
        "众"
      ],
      [
        "天",
        "蓬"
      ],
      [
        "好",
        "人"
      ],
      [
        "官",
        "员"
      ],
      [
        "寿",
        "星"
      ],
      [
        "将",
        "军"
      ],
      [
        "径",
        "回"
      ],
      [
        "我",
        "那"
      ],
      [
        "手",
        "脚"
      ],
      [
        "打",
        "得"
      ],
      [
        "打",
        "扮"
      ],
      [
        "救",
        "他"
      ],
      [
        "早",
        "已"
      ],
      [
        "是",
        "老孙"
      ],
      [
        "昼",
        "夜"
      ],
      [
        "望",
        "见"
      ],
      [
        "然",
        "后"
      ],
      [
        "猴",
        "头"
      ],
      [
        "着",
        "我"
      ],
      [
        "睡",
        "着"
      ],
      [
        "睡",
        "觉"
      ],
      [
        "神",
        "兵"
      ],
      [
        "等",
        "候"
      ],
      [
        "那",
        "一个"
      ],
      [
        "锡",
        "杖"
      ],
      [
        "长",
        "短"
      ],
      [
        "黄",
        "金"
      ],
      [
        "师父",
        "我"
      ],
      [
        "怎么",
        "就"
      ],
      [
        "龙王",
        "道"
      ],
      [
        "妖王",
        "道"
      ],
      [
        "二魔",
        "道"
      ],
      [
        "一",
        "双"
      ],
      [
        "不",
        "出"
      ],
      [
        "不",
        "济"
      ],
      [
        "与",
        "我们"
      ],
      [
        "中",
        "有"
      ],
      [
        "了",
        "他的"
      ],
      [
        "他",
        "若"
      ],
      [
        "你",
        "只"
      ],
      [
        "到",
        "于"
      ],
      [
        "又",
        "道"
      ],
      [
        "叫",
        "一声"
      ],
      [
        "城",
        "池"
      ],
      [
        "处",
        "处"
      ],
      [
        "女",
        "怪"
[...]
